{
  "version": "1.0",
  "truncation": null,
  "padding": null,
  "added_tokens": [],
  "normalizer": null,
  "pre_tokenizer": {
    "type": "Whitespace"
  },
  "post_processor": null,
  "decoder": null,
  "model": {
    "type": "BPE",
    "dropout": null,
    "unk_token": "<unk>",
    "continuing_subword_prefix": null,
    "end_of_word_suffix": null,
    "fuse_unk": false,
    "byte_fallback": false,
    "ignore_merges": false,
    "vocab": {
      "!": 0,
      "\"": 1,
      "$": 2,
      "%": 3,
      "&": 4,
      "'": 5,
      "(": 6,
      ")": 7,
      "*": 8,
      "+": 9,
      ",": 10,
      "-": 11,
      ".": 12,
      "/": 13,
      "0": 14,
      "1": 15,
      "2": 16,
      "3": 17,
      "4": 18,
      "5": 19,
      "6": 20,
      "7": 21,
      "8": 22,
      "9": 23,
      ":": 24,
      ";": 25,
      "<": 26,
      "=": 27,
      ">": 28,
      "?": 29,
      "A": 30,
      "B": 31,
      "C": 32,
      "D": 33,
      "E": 34,
      "F": 35,
      "G": 36,
      "H": 37,
      "I": 38,
      "J": 39,
      "K": 40,
      "L": 41,
      "M": 42,
      "N": 43,
      "O": 44,
      "P": 45,
      "Q": 46,
      "R": 47,
      "S": 48,
      "T": 49,
      "U": 50,
      "V": 51,
      "W": 52,
      "X": 53,
      "Y": 54,
      "Z": 55,
      "[": 56,
      "\\": 57,
      "]": 58,
      "_": 59,
      "`": 60,
      "a": 61,
      "b": 62,
      "c": 63,
      "d": 64,
      "e": 65,
      "f": 66,
      "g": 67,
      "h": 68,
      "i": 69,
      "j": 70,
      "k": 71,
      "l": 72,
      "m": 73,
      "n": 74,
      "o": 75,
      "p": 76,
      "q": 77,
      "r": 78,
      "s": 79,
      "t": 80,
      "u": 81,
      "v": 82,
      "w": 83,
      "x": 84,
      "y": 85,
      "z": 86,
      "{": 87,
      "}": 88,
      "©": 89,
      "«": 90,
      "»": 91,
      "Ä": 92,
      "Å": 93,
      "Ç": 94,
      "È": 95,
      "Ö": 96,
      "Ü": 97,
      "ß": 98,
      "à": 99,
      "á": 100,
      "â": 101,
      "ä": 102,
      "ç": 103,
      "è": 104,
      "é": 105,
      "ê": 106,
      "ë": 107,
      "í": 108,
      "ò": 109,
      "ó": 110,
      "ö": 111,
      "ù": 112,
      "ú": 113,
      "û": 114,
      "ü": 115,
      "п": 116,
      "–": 117,
      "—": 118,
      "‘": 119,
      "’": 120,
      "“": 121,
      "”": 122,
      "…": 123,
      "′": 124,
      "en": 125,
      "er": 126,
      "ch": 127,
      "in": 128,
      "ie": 129,
      "nd": 130,
      "ich": 131,
      "st": 132,
      "es": 133,
      "th": 134,
      "ein": 135,
      "an": 136,
      "ei": 137,
      "te": 138,
      "ge": 139,
      "und": 140,
      "ll": 141,
      "au": 142,
      "ar": 143,
      "on": 144,
      "or": 145,
      "un": 146,
      "der": 147,
      "ou": 148,
      "as": 149,
      "gen": 150,
      "die": 151,
      "at": 152,
      "zu": 153,
      "sch": 154,
      "it": 155,
      "re": 156,
      "se": 157,
      "den": 158,
      "de": 159,
      "be": 160,
      "al": 161,
      "and": 162,
      "ten": 163,
      "le": 164,
      "ir": 165,
      "ck": 166,
      "me": 167,
      "hr": 168,
      "so": 169,
      "is": 170,
      "ig": 171,
      "the": 172,
      "ver": 173,
      "lich": 174,
      "icht": 175,
      "ach": 176,
      "ur": 177,
      "he": 178,
      "you": 179,
      "eine": 180,
      "to": 181,
      "all": 182,
      "ter": 183,
      "ing": 184,
      "no": 185,
      "ber": 186,
      "ben": 187,
      "sich": 188,
      "da": 189,
      "ne": 190,
      "ha": 191,
      "ro": 192,
      "el": 193,
      "sie": 194,
      "im": 195,
      "auf": 196,
      "nicht": 197,
      "her": 198,
      "wi": 199,
      "das": 200,
      "of": 201,
      "sa": 202,
      "ut": 203,
      "war": 204,
      "mit": 205,
      "hat": 206,
      "ung": 207,
      "man": 208,
      "sen": 209,
      "men": 210,
      "ke": 211,
      "ra": 212,
      "dem": 213,
      "li": 214,
      "lo": 215,
      "ist": 216,
      "hn": 217,
      "eit": 218,
      "wo": 219,
      "we": 220,
      "von": 221,
      "hen": 222,
      "wie": 223,
      "ve": 224,
      "ste": 225,
      "aus": 226,
      "om": 227,
      "um": 228,
      "et": 229,
      "ern": 230,
      "wir": 231,
      "Sch": 232,
      "ld": 233,
      "ft": 234,
      "my": 235,
      "Ge": 236,
      "des": 237,
      "do": 238,
      "for": 239,
      "ho": 240,
      "ür": 241,
      "als": 242,
      "hl": 243,
      "ann": 244,
      "tr": 245,
      "einen": 246,
      "lie": 247,
      "enn": 248,
      "uch": 249,
      "la": 250,
      "was": 251,
      "mer": 252,
      "ier": 253,
      "vor": 254,
      "mir": 255,
      "wer": 256,
      "ht": 257,
      "uns": 258,
      "us": 259,
      "am": 260,
      "fe": 261,
      "ges": 262,
      "daß": 263,
      "sp": 264,
      "mich": 265,
      "über": 266,
      "ück": 267,
      "ce": 268,
      "ti": 269,
      "em": 270,
      "ab": 271,
      "sel": 272,
      "ma": 273,
      "wei": 274,
      "ind": 275,
      "that": 276,
      "ent": 277,
      "ih": 278,
      "ihr": 279,
      "einer": 280,
      "ri": 281,
      "bei": 282,
      "ust": 283,
      "il": 284,
      "go": 285,
      "sten": 286,
      "St": 287,
      "auch": 288,
      "urch": 289,
      "Ver": 290,
      "And": 291,
      "nach": 292,
      "rei": 293,
      "ön": 294,
      "chen": 295,
      "ther": 296,
      "iel": 297,
      "Er": 298,
      "ed": 299,
      "tz": 300,
      "hin": 301,
      "einem": 302,
      "your": 303,
      "with": 304,
      "fen": 305,
      "fa": 306,
      "durch": 307,
      "Die": 308,
      "du": 309,
      "anz": 310,
      "schen": 311,
      "sh": 312,
      "gt": 313,
      "uß": 314,
      "ger": 315,
      "br": 316,
      "Sie": 317,
      "not": 318,
      "nen": 319,
      "di": 320,
      "nur": 321,
      "wa": 322,
      "leich": 323,
      "od": 324,
      "up": 325,
      "rie": 326,
      "bes": 327,
      "ihn": 328,
      "ser": 329,
      "So": 330,
      "wor": 331,
      "Ges": 332,
      "Au": 333,
      "lei": 334,
      "Ich": 335,
      "Be": 336,
      "ken": 337,
      "will": 338,
      "ill": 339,
      "ad": 340,
      "fü": 341,
      "eil": 342,
      "ol": 343,
      "this": 344,
      "Und": 345,
      "sein": 346,
      "aber": 347,
      "noch": 348,
      "na": 349,
      "än": 350,
      "ihm": 351,
      "one": 352,
      "gleich": 353,
      "gte": 354,
      "end": 355,
      "An": 356,
      "ers": 357,
      "his": 358,
      "acht": 359,
      "unter": 360,
      "fu": 361,
      "now": 362,
      "co": 363,
      "Her": 364,
      "hatte": 365,
      "lan": 366,
      "lichen": 367,
      "get": 368,
      "wenn": 369,
      "che": 370,
      "our": 371,
      "hal": 372,
      "Un": 373,
      "gl": 374,
      "dr": 375,
      "für": 376,
      "är": 377,
      "igen": 378,
      "sam": 379,
      "je": 380,
      "ßen": 381,
      "doch": 382,
      "soll": 383,
      "nun": 384,
      "are": 385,
      "bt": 386,
      "ün": 387,
      "kann": 388,
      "cht": 389,
      "gew": 390,
      "wieder": 391,
      "ta": 392,
      "mehr": 393,
      "keit": 394,
      "Ein": 395,
      "kom": 396,
      "immer": 397,
      "pf": 398,
      "ganz": 399,
      "bst": 400,
      "Der": 401,
      "Le": 402,
      "hö": 403,
      "diese": 404,
      "ly": 405,
      "Fre": 406,
      "ige": 407,
      "zur": 408,
      "scha": 409,
      "pp": 410,
      "ight": 411,
      "art": 412,
      "thou": 413,
      "here": 414,
      "mo": 415,
      "tet": 416,
      "like": 417,
      "ess": 418,
      "zen": 419,
      "gr": 420,
      "ot": 421,
      "hren": 422,
      "gro": 423,
      "ug": 424,
      "lle": 425,
      "ould": 426,
      "gel": 427,
      "out": 428,
      "have": 429,
      "ff": 430,
      "wohl": 431,
      "dar": 432,
      "him": 433,
      "ze": 434,
      "ow": 435,
      "ien": 436,
      "ue": 437,
      "In": 438,
      "The": 439,
      "ungen": 440,
      "ause": 441,
      "We": 442,
      "ain": 443,
      "gegen": 444,
      "denn": 445,
      "änd": 446,
      "mal": 447,
      "ster": 448,
      "ät": 449,
      "stand": 450,
      "ion": 451,
      "but": 452,
      "llen": 453,
      "wel": 454,
      "gesch": 455,
      "pe": 456,
      "hei": 457,
      "liche": 458,
      "lt": 459,
      "ick": 460,
      "inn": 461,
      "fre": 462,
      "po": 463,
      "To": 464,
      "viel": 465,
      "ag": 466,
      "heit": 467,
      "ere": 468,
      "mein": 469,
      "kl": 470,
      "wen": 471,
      "Ar": 472,
      "bar": 473,
      "sei": 474,
      "ru": 475,
      "sind": 476,
      "lick": 477,
      "pr": 478,
      "But": 479,
      "can": 480,
      "ute": 481,
      "Vor": 482,
      "Das": 483,
      "wird": 484,
      "mor": 485,
      "rom": 486,
      "Men": 487,
      "what": 488,
      "selbst": 489,
      "ant": 490,
      "werden": 491,
      "EN": 492,
      "alles": 493,
      "isch": 494,
      "ihre": 495,
      "Re": 496,
      "haben": 497,
      "You": 498,
      "schon": 499,
      "ack": 500,
      "setz": 501,
      "las": 502,
      "id": 503,
      "IN": 504,
      "hier": 505,
      "alt": 506,
      "Es": 507,
      "habe": 508,
      "schaft": 509,
      "seine": 510,
      "onn": 511,
      "just": 512,
      "vo": 513,
      "gh": 514,
      "if": 515,
      "elt": 516,
      "zum": 517,
      "geb": 518,
      "zt": 519,
      "IO": 520,
      "ren": 521,
      "kommen": 522,
      "iger": 523,
      "itt": 524,
      "hel": 525,
      "hne": 526,
      "nie": 527,
      "Da": 528,
      "know": 529,
      "ingen": 530,
      "ang": 531,
      "wh": 532,
      "erst": 533,
      "rau": 534,
      "ßt": 535,
      "mt": 536,
      "ard": 537,
      "bo": 538,
      "ert": 539,
      "off": 540,
      "sehr": 541,
      "Al": 542,
      "qu": 543,
      "kön": 544,
      "ink": 545,
      "alle": 546,
      "ine": 547,
      "nis": 548,
      "Was": 549,
      "Wir": 550,
      "Se": 551,
      "ord": 552,
      "AR": 553,
      "gi": 554,
      "mach": 555,
      "konn": 556,
      "sehen": 557,
      "ald": 558,
      "fuck": 559,
      "angen": 560,
      "mö": 561,
      "Freund": 562,
      "gar": 563,
      "Wie": 564,
      "such": 565,
      "muß": 566,
      "äu": 567,
      "det": 568,
      "ah": 569,
      "kt": 570,
      "thy": 571,
      "geben": 572,
      "meine": 573,
      "rü": 574,
      "Ihr": 575,
      "allen": 576,
      "ts": 577,
      "wn": 578,
      "blick": 579,
      "by": 580,
      "ven": 581,
      "fin": 582,
      "from": 583,
      "dies": 584,
      "Augen": 585,
      "Zeit": 586,
      "hrt": 587,
      "sagte": 588,
      "ic": 589,
      "ange": 590,
      "He": 591,
      "they": 592,
      "jen": 593,
      "ater": 594,
      "ward": 595,
      "ok": 596,
      "ort": 597,
      "say": 598,
      "wür": 599,
      "dieser": 600,
      "chte": 601,
      "That": 602,
      "Mit": 603,
      "halten": 604,
      "gend": 605,
      "Wei": 606,
      "tre": 607,
      "don": 608,
      "Man": 609,
      "esen": 610,
      "Leben": 611,
      "ell": 612,
      "spr": 613,
      "age": 614,
      "gef": 615,
      "ohne": 616,
      "let": 617,
      "mü": 618,
      "sol": 619,
      "ever": 620,
      "ay": 621,
      "com": 622,
      "los": 623,
      "wä": 624,
      "fort": 625,
      "ob": 626,
      "Gesch": 627,
      "Th": 628,
      "glich": 629,
      "oder": 630,
      "lä": 631,
      "ander": 632,
      "schön": 633,
      "thing": 634,
      "pro": 635,
      "Lie": 636,
      "ap": 637,
      "way": 638,
      "uten": 639,
      "Do": 640,
      "ild": 641,
      "got": 642,
      "ße": 643,
      "ak": 644,
      "under": 645,
      "bald": 646,
      "son": 647,
      "hmen": 648,
      "when": 649,
      "US": 650,
      "ond": 651,
      "some": 652,
      "beg": 653,
      "igkeit": 654,
      "nichts": 655,
      "Wil": 656,
      "eist": 657,
      "konnte": 658,
      "seiner": 659,
      "Auf": 660,
      "En": 661,
      "ous": 662,
      "Ch": 663,
      "ast": 664,
      "op": 665,
      "con": 666,
      "how": 667,
      "zurück": 668,
      "she": 669,
      "eigen": 670,
      "hm": 671,
      "ep": 672,
      "ure": 673,
      "eines": 674,
      "Wilhel": 675,
      "uck": 676,
      "Mann": 677,
      "weg": 678,
      "Or": 679,
      "dich": 680,
      "fühl": 681,
      "wär": 682,
      "woll": 683,
      "bis": 684,
      "sammen": 685,
      "teil": 686,
      "reich": 687,
      "Wo": 688,
      "lau": 689,
      "ank": 690,
      "besch": 691,
      "andern": 692,
      "Wh": 693,
      "still": 694,
      "Menschen": 695,
      "Hand": 696,
      "come": 697,
      "tra": 698,
      "see": 699,
      "back": 700,
      "schien": 701,
      "shall": 702,
      "Sp": 703,
      "pt": 704,
      "ins": 705,
      "cher": 706,
      "fer": 707,
      "waren": 708,
      "It": 709,
      "ate": 710,
      "dir": 711,
      "there": 712,
      "unden": 713,
      "Nach": 714,
      "Zu": 715,
      "thee": 716,
      "ass": 717,
      "rief": 718,
      "nä": 719,
      "eig": 720,
      "good": 721,
      "ath": 722,
      "My": 723,
      "What": 724,
      "Ab": 725,
      "more": 726,
      "ner": 727,
      "had": 728,
      "love": 729,
      "Welt": 730,
      "seinen": 731,
      "ct": 732,
      "lassen": 733,
      "bin": 734,
      "ese": 735,
      "igt": 736,
      "glück": 737,
      "them": 738,
      "ja": 739,
      "gest": 740,
      "For": 741,
      "recht": 742,
      "ong": 743,
      "licher": 744,
      "ör": 745,
      "aum": 746,
      "Gegen": 747,
      "Em": 748,
      "gem": 749,
      "king": 750,
      "bit": 751,
      "fl": 752,
      "fand": 753,
      "hand": 754,
      "hät": 755,
      "who": 756,
      "then": 757,
      "sah": 758,
      "Gl": 759,
      "etwas": 760,
      "Wilhelm": 761,
      "setzte": 762,
      "would": 763,
      "UC": 764,
      "letz": 765,
      "hä": 766,
      "Bes": 767,
      "zie": 768,
      "ches": 769,
      "ffen": 770,
      "ble": 771,
      "etzt": 772,
      "Mar": 773,
      "zo": 774,
      "Aus": 775,
      "zusammen": 776,
      "achte": 777,
      "think": 778,
      "eben": 779,
      "bet": 780,
      "blo": 781,
      "eiten": 782,
      "gut": 783,
      "stell": 784,
      "Nat": 785,
      "make": 786,
      "ING": 787,
      "issen": 788,
      "Ja": 789,
      "schein": 790,
      "rä": 791,
      "self": 792,
      "Kön": 793,
      "len": 794,
      "shit": 795,
      "versch": 796,
      "wenig": 797,
      "ER": 798,
      "ted": 799,
      "pla": 800,
      "AN": 801,
      "alten": 802,
      "ging": 803,
      "dann": 804,
      "OR": 805,
      "mel": 806,
      "zwei": 807,
      "ständ": 808,
      "trau": 809,
      "legen": 810,
      "ough": 811,
      "diesen": 812,
      "gehen": 813,
      "Fe": 814,
      "merk": 815,
      "fo": 816,
      "ye": 817,
      "day": 818,
      "..": 819,
      "ry": 820,
      "time": 821,
      "per": 822,
      "ache": 823,
      "ließ": 824,
      "lieb": 825,
      "ES": 826,
      "voll": 827,
      "bro": 828,
      "unser": 829,
      "hre": 830,
      "Wer": 831,
      "fall": 832,
      "Ro": 833,
      "ET": 834,
      "fern": 835,
      "Wi": 836,
      "hör": 837,
      "diesem": 838,
      "kenn": 839,
      "unst": 840,
      "wur": 841,
      "sche": 842,
      "No": 843,
      "stehen": 844,
      "hlen": 845,
      "Herr": 846,
      "ihren": 847,
      "Nun": 848,
      "lat": 849,
      "uer": 850,
      "einige": 851,
      "ga": 852,
      "ischen": 853,
      "dan": 854,
      "kam": 855,
      "bel": 856,
      "allein": 857,
      "gra": 858,
      "vom": 859,
      "sollte": 860,
      "Um": 861,
      "Wenn": 862,
      "einmal": 863,
      "seinem": 864,
      "mä": 865,
      "cause": 866,
      "vie": 867,
      "bend": 868,
      "Wa": 869,
      "fä": 870,
      "Du": 871,
      "never": 872,
      "fri": 873,
      "eln": 874,
      "inder": 875,
      "mann": 876,
      "All": 877,
      "tel": 878,
      "sagen": 879,
      "lord": 880,
      "bl": 881,
      "eiden": 882,
      "too": 883,
      "Geb": 884,
      "Rei": 885,
      "meiner": 886,
      "well": 887,
      "Doch": 888,
      "König": 889,
      "Ta": 890,
      "Ma": 891,
      "wollte": 892,
      "frei": 893,
      "nehmen": 894,
      "Cause": 895,
      "machen": 896,
      "ght": 897,
      "sed": 898,
      "eir": 899,
      "fol": 900,
      "Euch": 901,
      "indem": 902,
      "tern": 903,
      "fore": 904,
      "Ha": 905,
      "ation": 906,
      "ler": 907,
      "Frau": 908,
      "einander": 909,
      "fte": 910,
      "si": 911,
      "bre": 912,
      "welche": 913,
      "ex": 914,
      "unde": 915,
      "cken": 916,
      "did": 917,
      "gu": 918,
      "hätte": 919,
      "ci": 920,
      "lange": 921,
      "üb": 922,
      "KING": 923,
      "blei": 924,
      "Gesell": 925,
      "Bet": 926,
      "Fel": 927,
      "hnen": 928,
      "ften": 929,
      "weiß": 930,
      "su": 931,
      "Den": 932,
      "wand": 933,
      "genug": 934,
      "versetzte": 935,
      "worden": 936,
      "können": 937,
      "Char": 938,
      "ves": 939,
      "äd": 940,
      "sond": 941,
      "dieses": 942,
      "mals": 943,
      "ment": 944,
      "jeder": 945,
      "Gr": 946,
      "glau": 947,
      "tete": 948,
      "ihrer": 949,
      ":]": 950,
      "Glück": 951,
      "Lo": 952,
      "lot": 953,
      "heim": 954,
      "aupt": 955,
      "großen": 956,
      "Augenblick": 957,
      "Haus": 958,
      "assen": 959,
      "weil": 960,
      "See": 961,
      "Denn": 962,
      "than": 963,
      "their": 964,
      "ret": 965,
      "were": 966,
      "Unter": 967,
      "take": 968,
      "If": 969,
      "look": 970,
      "may": 971,
      "Bo": 972,
      "La": 973,
      "down": 974,
      "ihnen": 975,
      "tion": 976,
      "hiel": 977,
      "öt": 978,
      "lang": 979,
      "sc": 980,
      "best": 981,
      "spe": 982,
      "hält": 983,
      "ans": 984,
      "leicht": 985,
      "Got": 986,
      "fra": 987,
      "hig": 988,
      "meinen": 989,
      "haft": 990,
      "Art": 991,
      "nung": 992,
      "tell": 993,
      "ody": 994,
      "fr": 995,
      "groß": 996,
      "wunder": 997,
      "zä": 998,
      "öß": 999,
      "denken": 1000,
      "oft": 1001,
      "EL": 1002,
      "IC": 1003,
      "sir": 1004,
      "Gesellschaft": 1005,
      "Vater": 1006,
      "lichkeit": 1007,
      "hervor": 1008,
      "ac": 1009,
      "wün": 1010,
      "finden": 1011,
      "Br": 1012,
      "besond": 1013,
      "ile": 1014,
      "bed": 1015,
      "Aber": 1016,
      "zei": 1017,
      "chten": 1018,
      "these": 1019,
      "Ent": 1020,
      "As": 1021,
      "wahr": 1022,
      "wäre": 1023,
      "Bl": 1024,
      "Geist": 1025,
      "Bei": 1026,
      "ase": 1027,
      "aller": 1028,
      "unge": 1029,
      "any": 1030,
      "ische": 1031,
      "aten": 1032,
      "irst": 1033,
      "nü": 1034,
      "red": 1035,
      "net": 1036,
      "gese": 1037,
      "Als": 1038,
      "Ne": 1039,
      "ssen": 1040,
      "nde": 1041,
      "alk": 1042,
      "weiter": 1043,
      "ite": 1044,
      "again": 1045,
      "tun": 1046,
      "wider": 1047,
      "every": 1048,
      "geg": 1049,
      "dessen": 1050,
      "mag": 1051,
      "keine": 1052,
      "Mut": 1053,
      "amen": 1054,
      "Me": 1055,
      "Natur": 1056,
      "Land": 1057,
      "sicht": 1058,
      "größ": 1059,
      "Sei": 1060,
      "mar": 1061,
      "zer": 1062,
      "schl": 1063,
      "Nacht": 1064,
      "must": 1065,
      "neu": 1066,
      "sto": 1067,
      "herr": 1068,
      "sit": 1069,
      "ish": 1070,
      "imm": 1071,
      "IUS": 1072,
      "Now": 1073,
      "other": 1074,
      "ARD": 1075,
      "--": 1076,
      "ieden": 1077,
      "achen": 1078,
      "hatten": 1079,
      "ünst": 1080,
      "been": 1081,
      "Hier": 1082,
      "rich": 1083,
      "att": 1084,
      "should": 1085,
      "ple": 1086,
      "give": 1087,
      "leb": 1088,
      "Hö": 1089,
      "fter": 1090,
      "meinem": 1091,
      "tti": 1092,
      "Tag": 1093,
      "dien": 1094,
      "gern": 1095,
      "iges": 1096,
      "This": 1097,
      "ersten": 1098,
      "Kunst": 1099,
      "Fl": 1100,
      "Wor": 1101,
      "äft": 1102,
      "gri": 1103,
      "row": 1104,
      "Ber": 1105,
      "ds": 1106,
      "euch": 1107,
      "ice": 1108,
      "tigen": 1109,
      "Otti": 1110,
      "ckt": 1111,
      "äch": 1112,
      "orgen": 1113,
      "feel": 1114,
      "Go": 1115,
      "raft": 1116,
      "fel": 1117,
      "wischen": 1118,
      "Gel": 1119,
      "gab": 1120,
      "kein": 1121,
      "ars": 1122,
      "iss": 1123,
      "Von": 1124,
      "tlich": 1125,
      "mand": 1126,
      "ieren": 1127,
      "bringen": 1128,
      "where": 1129,
      "andere": 1130,
      "sogleich": 1131,
      "sonst": 1132,
      "put": 1133,
      "innen": 1134,
      "Fr": 1135,
      "io": 1136,
      "new": 1137,
      "frü": 1138,
      "tie": 1139,
      "Tr": 1140,
      "uld": 1141,
      "dern": 1142,
      "Auch": 1143,
      "Gra": 1144,
      "gre": 1145,
      "ged": 1146,
      "steht": 1147,
      "sk": 1148,
      "try": 1149,
      "ücken": 1150,
      "Ste": 1151,
      "que": 1152,
      "Haupt": 1153,
      "ca": 1154,
      "unk": 1155,
      "höch": 1156,
      "Freu": 1157,
      "ittle": 1158,
      "hear": 1159,
      "einz": 1160,
      "hielt": 1161,
      "call": 1162,
      "ful": 1163,
      "body": 1164,
      "kü": 1165,
      "werde": 1166,
      "life": 1167,
      "Gest": 1168,
      "könn": 1169,
      "right": 1170,
      "adt": 1171,
      "ul": 1172,
      "LO": 1173,
      "inem": 1174,
      "head": 1175,
      "want": 1176,
      "Gott": 1177,
      "Pro": 1178,
      "dig": 1179,
      "Gew": 1180,
      "Charlot": 1181,
      "res": 1182,
      "wuß": 1183,
      "fahren": 1184,
      "Weise": 1185,
      "Eminem": 1186,
      "Herz": 1187,
      "Co": 1188,
      "Kind": 1189,
      "gon": 1190,
      "schau": 1191,
      "äng": 1192,
      "Ru": 1193,
      "erson": 1194,
      "pen": 1195,
      "str": 1196,
      "ity": 1197,
      "ving": 1198,
      "lieben": 1199,
      "endlich": 1200,
      "ps": 1201,
      "besonders": 1202,
      "thr": 1203,
      "del": 1204,
      "bein": 1205,
      "öne": 1206,
      "bekann": 1207,
      "lagen": 1208,
      "God": 1209,
      "gebr": 1210,
      "Gen": 1211,
      "little": 1212,
      "much": 1213,
      "spre": 1214,
      "father": 1215,
      "nahm": 1216,
      "II": 1217,
      "betr": 1218,
      "verb": 1219,
      "mon": 1220,
      "jetzt": 1221,
      "ucht": 1222,
      "kennen": 1223,
      "Bild": 1224,
      "De": 1225,
      "Will": 1226,
      "weit": 1227,
      "würde": 1228,
      "sprach": 1229,
      "KE": 1230,
      "Weg": 1231,
      "Edu": 1232,
      "ph": 1233,
      "ings": 1234,
      "empf": 1235,
      "rigen": 1236,
      "wohn": 1237,
      "With": 1238,
      "hath": 1239,
      "hast": 1240,
      "urn": 1241,
      "Kinder": 1242,
      "hrte": 1243,
      "liches": 1244,
      "letzt": 1245,
      "Hause": 1246,
      "ance": 1247,
      "Tage": 1248,
      "oul": 1249,
      "offen": 1250,
      "ädchen": 1251,
      "öhn": 1252,
      "star": 1253,
      "entsch": 1254,
      "Mädchen": 1255,
      "wick": 1256,
      "mother": 1257,
      "große": 1258,
      "When": 1259,
      "Who": 1260,
      "itz": 1261,
      "lea": 1262,
      "lien": 1263,
      "sor": 1264,
      "Ph": 1265,
      "ingt": 1266,
      "kommt": 1267,
      "darauf": 1268,
      "freund": 1269,
      "Li": 1270,
      "wegen": 1271,
      "zwischen": 1272,
      "geht": 1273,
      "said": 1274,
      "Nicht": 1275,
      "could": 1276,
      "dis": 1277,
      "ies": 1278,
      "Stadt": 1279,
      "swe": 1280,
      "hle": 1281,
      "immel": 1282,
      "Seite": 1283,
      "bte": 1284,
      "orn": 1285,
      "most": 1286,
      "angene": 1287,
      "gesehen": 1288,
      "sieht": 1289,
      "name": 1290,
      "ign": 1291,
      "fest": 1292,
      "möglich": 1293,
      "bra": 1294,
      "ommen": 1295,
      "Teil": 1296,
      "ire": 1297,
      "ty": 1298,
      "wollen": 1299,
      "ade": 1300,
      "over": 1301,
      "ss": 1302,
      "bede": 1303,
      "frie": 1304,
      "ihrem": 1305,
      "night": 1306,
      "sho": 1307,
      "Why": 1308,
      "Lu": 1309,
      "Not": 1310,
      "OL": 1311,
      "win": 1312,
      "heart": 1313,
      "solchen": 1314,
      "Hü": 1315,
      "made": 1316,
      "Zust": 1317,
      "mut": 1318,
      "llig": 1319,
      "ganze": 1320,
      "RO": 1321,
      "dro": 1322,
      "LA": 1323,
      "Nur": 1324,
      "dy": 1325,
      "gs": 1326,
      "tem": 1327,
      "world": 1328,
      "Mutter": 1329,
      "IS": 1330,
      "ßte": 1331,
      "irgend": 1332,
      "ließen": 1333,
      "upon": 1334,
      "scheint": 1335,
      "friend": 1336,
      "atch": 1337,
      "death": 1338,
      "ide": 1339,
      "land": 1340,
      "lleicht": 1341,
      "which": 1342,
      "deut": 1343,
      "leben": 1344,
      "ragen": 1345,
      "TIO": 1346,
      "War": 1347,
      "essen": 1348,
      "ale": 1349,
      "mus": 1350,
      "zier": 1351,
      "anna": 1352,
      "Freunde": 1353,
      "Fü": 1354,
      "Ze": 1355,
      "ätz": 1356,
      "Liebe": 1357,
      "itten": 1358,
      "need": 1359,
      "wiß": 1360,
      "ray": 1361,
      "pa": 1362,
      "ub": 1363,
      "eister": 1364,
      "why": 1365,
      "Mensch": 1366,
      "Son": 1367,
      "kaum": 1368,
      "mine": 1369,
      "aufge": 1370,
      "ganzen": 1371,
      "bitch": 1372,
      "better": 1373,
      "führt": 1374,
      "inner": 1375,
      "speak": 1376,
      "zeich": 1377,
      "Kl": 1378,
      "Ko": 1379,
      "dam": 1380,
      "lossen": 1381,
      "zogen": 1382,
      "CA": 1383,
      "How": 1384,
      "arm": 1385,
      "Herzen": 1386,
      "tle": 1387,
      "hlt": 1388,
      "Himmel": 1389,
      "seit": 1390,
      "ied": 1391,
      "lag": 1392,
      "bab": 1393,
      "dass": 1394,
      "auszu": 1395,
      "even": 1396,
      "Seele": 1397,
      "Für": 1398,
      "Ju": 1399,
      "ince": 1400,
      "denen": 1401,
      "wirk": 1402,
      "gewesen": 1403,
      "bil": 1404,
      "spiel": 1405,
      "Pfer": 1406,
      "very": 1407,
      "langen": 1408,
      "ON": 1409,
      "cra": 1410,
      "glücklich": 1411,
      "Come": 1412,
      "Mein": 1413,
      "bu": 1414,
      "ses": 1415,
      "erzä": 1416,
      "Wasser": 1417,
      "llt": 1418,
      "zuletzt": 1419,
      "set": 1420,
      "halb": 1421,
      "Eduard": 1422,
      "guten": 1423,
      "ose": 1424,
      "about": 1425,
      "grü": 1426,
      "möchte": 1427,
      "Plat": 1428,
      "old": 1429,
      "fuhr": 1430,
      "machte": 1431,
      "hältnis": 1432,
      "wünsch": 1433,
      "yet": 1434,
      "stellt": 1435,
      "flo": 1436,
      "gute": 1437,
      "kur": 1438,
      "nat": 1439,
      "part": 1440,
      "ras": 1441,
      "sehn": 1442,
      "send": 1443,
      "gleichen": 1444,
      "hören": 1445,
      "sondern": 1446,
      "Sa": 1447,
      "öff": 1448,
      "auer": 1449,
      "through": 1450,
      "anzu": 1451,
      "atten": 1452,
      "schrei": 1453,
      "achten": 1454,
      "davon": 1455,
      "app": 1456,
      "Let": 1457,
      "ian": 1458,
      "erwar": 1459,
      "wanna": 1460,
      "mußte": 1461,
      "Blick": 1462,
      "hme": 1463,
      "genommen": 1464,
      "ally": 1465,
      "halt": 1466,
      "sprechen": 1467,
      "hinter": 1468,
      "nieder": 1469,
      "Gar": 1470,
      "legt": 1471,
      "keep": 1472,
      "Lebens": 1473,
      "Pf": 1474,
      "ear": 1475,
      "macht": 1476,
      "inde": 1477,
      "hol": 1478,
      "gefä": 1479,
      "Vol": 1480,
      "irl": 1481,
      "Oh": 1482,
      "heil": 1483,
      "herein": 1484,
      "näher": 1485,
      "Gi": 1486,
      "standen": 1487,
      "Po": 1488,
      "inne": 1489,
      "legenheit": 1490,
      "Sinn": 1491,
      "ik": 1492,
      "vö": 1493,
      "stre": 1494,
      "darf": 1495,
      "gibt": 1496,
      "chter": 1497,
      "beiden": 1498,
      "Which": 1499,
      "ICH": 1500,
      "RICH": 1501,
      "oren": 1502,
      "immt": 1503,
      "stellen": 1504,
      "gewöhn": 1505,
      "There": 1506,
      "zog": 1507,
      "Kr": 1508,
      "Reine": 1509,
      "ichte": 1510,
      "cond": 1511,
      "gemacht": 1512,
      "vielleicht": 1513,
      "DU": 1514,
      "schw": 1515,
      "trat": 1516,
      "besser": 1517,
      "freu": 1518,
      "DUKE": 1519,
      "Män": 1520,
      "Wort": 1521,
      "tro": 1522,
      "inter": 1523,
      "ichen": 1524,
      "entgegen": 1525,
      "gebracht": 1526,
      "Zustand": 1527,
      "Im": 1528,
      "ore": 1529,
      "hold": 1530,
      "Über": 1531,
      "Gedan": 1532,
      "iß": 1533,
      "Is": 1534,
      "find": 1535,
      "Abend": 1536,
      "Ser": 1537,
      "inge": 1538,
      "wußte": 1539,
      "leave": 1540,
      "two": 1541,
      "hab": 1542,
      "own": 1543,
      "setzen": 1544,
      "griff": 1545,
      "She": 1546,
      "less": 1547,
      "äl": 1548,
      "hört": 1549,
      "ouse": 1550,
      "iert": 1551,
      "Stück": 1552,
      "Frauen": 1553,
      "UL": 1554,
      "ffe": 1555,
      "schne": 1556,
      "Sh": 1557,
      "fiel": 1558,
      "ersch": 1559,
      "führen": 1560,
      "RICHARD": 1561,
      "Bed": 1562,
      "richt": 1563,
      "ENTIO": 1564,
      "wurde": 1565,
      "done": 1566,
      "stra": 1567,
      "Ka": 1568,
      "ip": 1569,
      "wissen": 1570,
      "ved": 1571,
      "stens": 1572,
      "Hoff": 1573,
      "hea": 1574,
      "same": 1575,
      "Verhältnis": 1576,
      "brother": 1577,
      "Hof": 1578,
      "Te": 1579,
      "nden": 1580,
      "llow": 1581,
      "read": 1582,
      "niemand": 1583,
      "bleiben": 1584,
      "gonna": 1585,
      "chsel": 1586,
      "Stra": 1587,
      "ftig": 1588,
      "schönen": 1589,
      "Ist": 1590,
      "Person": 1591,
      "les": 1592,
      "läßt": 1593,
      "äuß": 1594,
      "eren": 1595,
      "seines": 1596,
      "getan": 1597,
      "samkeit": 1598,
      "Spr": 1599,
      "kes": 1600,
      "dert": 1601,
      "ände": 1602,
      "INC": 1603,
      "fucking": 1604,
      "par": 1605,
      "deren": 1606,
      "damit": 1607,
      "First": 1608,
      "Mon": 1609,
      "Ye": 1610,
      "keiten": 1611,
      "sse": 1612,
      "hrung": 1613,
      "ängt": 1614,
      "klär": 1615,
      "ziehen": 1616,
      "Sache": 1617,
      "einiger": 1618,
      "Diese": 1619,
      "thought": 1620,
      "Charlotte": 1621,
      "Of": 1622,
      "gewiß": 1623,
      "neue": 1624,
      "Schr": 1625,
      "entfern": 1626,
      "fast": 1627,
      "They": 1628,
      "Daß": 1629,
      "boy": 1630,
      "fuckin": 1631,
      "Wesen": 1632,
      "sha": 1633,
      "vi": 1634,
      "Besch": 1635,
      "Ende": 1636,
      "Then": 1637,
      "geworden": 1638,
      "dete": 1639,
      "Schl": 1640,
      "Freude": 1641,
      "Des": 1642,
      "hü": 1643,
      "kill": 1644,
      "vier": 1645,
      "zü": 1646,
      "schuld": 1647,
      "wart": 1648,
      "tige": 1649,
      "wurden": 1650,
      "lust": 1651,
      "sal": 1652,
      "yo": 1653,
      "before": 1654,
      "ausge": 1655,
      "viele": 1656,
      "könnte": 1657,
      "Where": 1658,
      "dort": 1659,
      "ness": 1660,
      "lam": 1661,
      "able": 1662,
      "play": 1663,
      "zwar": 1664,
      "aufs": 1665,
      "Ihnen": 1666,
      "chem": 1667,
      "ump": 1668,
      "selben": 1669,
      "face": 1670,
      "AB": 1671,
      "Dr": 1672,
      "Lord": 1673,
      "pre": 1674,
      "sä": 1675,
      "uh": 1676,
      "schöne": 1677,
      "alte": 1678,
      "kleinen": 1679,
      "Lust": 1680,
      "Zimmer": 1681,
      "away": 1682,
      "atter": 1683,
      "zugleich": 1684,
      "jene": 1685,
      "Fuß": 1686,
      "till": 1687,
      "digen": 1688,
      "treff": 1689,
      "Ger": 1690,
      "Neig": 1691,
      "fing": 1692,
      "might": 1693,
      "bemer": 1694,
      "...": 1695,
      "piel": 1696,
      "use": 1697,
      "hate": 1698,
      "Stu": 1699,
      "wärts": 1700,
      "Str": 1701,
      "house": 1702,
      "only": 1703,
      "Worte": 1704,
      "bla": 1705,
      "rein": 1706,
      "jener": 1707,
      "solche": 1708,
      "lern": 1709,
      "gekommen": 1710,
      "!)": 1711,
      "Leiden": 1712,
      "Ur": 1713,
      "tin": 1714,
      "ugen": 1715,
      "gnü": 1716,
      "rest": 1717,
      "Thou": 1718,
      "Your": 1719,
      "drei": 1720,
      "into": 1721,
      "igte": 1722,
      "dabei": 1723,
      "Empf": 1724,
      "UE": 1725,
      "jo": 1726,
      "tau": 1727,
      "word": 1728,
      "blood": 1729,
      "won": 1730,
      "Gefühl": 1731,
      "wert": 1732,
      "weise": 1733,
      "gere": 1734,
      "Mo": 1735,
      "TER": 1736,
      "dead": 1737,
      "ennen": 1738,
      "mäß": 1739,
      "lö": 1740,
      "oben": 1741,
      "äm": 1742,
      "une": 1743,
      "gentle": 1744,
      "schwer": 1745,
      "met": 1746,
      "lose": 1747,
      "Kom": 1748,
      "far": 1749,
      "fal": 1750,
      "verm": 1751,
      "allem": 1752,
      "myself": 1753,
      "baren": 1754,
      "freilich": 1755,
      "wr": 1756,
      "unsern": 1757,
      "Jahr": 1758,
      "Fa": 1759,
      "Mü": 1760,
      "bedeuten": 1761,
      "schnell": 1762,
      "hon": 1763,
      "atz": 1764,
      "besten": 1765,
      "also": 1766,
      "mean": 1767,
      "werk": 1768,
      "Kna": 1769,
      "Nor": 1770,
      "cl": 1771,
      "cke": 1772,
      "Auge": 1773,
      "comes": 1774,
      "ople": 1775,
      "Gedanken": 1776,
      "har": 1777,
      "ßer": 1778,
      "einigen": 1779,
      "til": 1780,
      "UCH": 1781,
      "Morgen": 1782,
      "bild": 1783,
      "girl": 1784,
      "fair": 1785,
      "fahr": 1786,
      "brachte": 1787,
      "drück": 1788,
      "heiter": 1789,
      "ghter": 1790,
      "yeah": 1791,
      "Just": 1792,
      "suchen": 1793,
      "bekannt": 1794,
      "Neigung": 1795,
      "show": 1796,
      "scher": 1797,
      "Schick": 1798,
      "emp": 1799,
      "tragen": 1800,
      "ESTER": 1801,
      "übrigen": 1802,
      "GLO": 1803,
      "hor": 1804,
      "aut": 1805,
      "aren": 1806,
      "reden": 1807,
      "hell": 1808,
      "nothing": 1809,
      "liegt": 1810,
      "brauch": 1811,
      "UCESTER": 1812,
      "Gestalt": 1813,
      "GLOUCESTER": 1814,
      "Sor": 1815,
      "nete": 1816,
      "coun": 1817,
      "meines": 1818,
      "sonder": 1819,
      "Dem": 1820,
      "gang": 1821,
      "wind": 1822,
      "Schaus": 1823,
      "geist": 1824,
      "lung": 1825,
      "Ottilien": 1826,
      "Frei": 1827,
      "Ind": 1828,
      "car": 1829,
      "keinen": 1830,
      "erste": 1831,
      "Hoffnung": 1832,
      "dau": 1833,
      "sle": 1834,
      "ya": 1835,
      "wechsel": 1836,
      "Schwe": 1837,
      "ace": 1838,
      "Gegend": 1839,
      "true": 1840,
      "fear": 1841,
      "Erde": 1842,
      "Bu": 1843,
      "nor": 1844,
      "sinn": 1845,
      "verl": 1846,
      "LE": 1847,
      "pri": 1848,
      "tig": 1849,
      "gegenwär": 1850,
      "eigentlich": 1851,
      "hady": 1852,
      "Rome": 1853,
      "Platz": 1854,
      "Durch": 1855,
      "mlich": 1856,
      "mind": 1857,
      "oh": 1858,
      "gegeben": 1859,
      "unft": 1860,
      "berei": 1861,
      "ahre": 1862,
      "völlig": 1863,
      "Yeah": 1864,
      "Ed": 1865,
      "Krei": 1866,
      "RY": 1867,
      "Rom": 1868,
      "gone": 1869,
      "zeit": 1870,
      "ream": 1871,
      "änger": 1872,
      "sollen": 1873,
      "ppen": 1874,
      "Kir": 1875,
      "OF": 1876,
      "first": 1877,
      "itter": 1878,
      "habt": 1879,
      "trä": 1880,
      "trie": 1881,
      "frem": 1882,
      "treten": 1883,
      "Stelle": 1884,
      "Lei": 1885,
      "blieb": 1886,
      "tis": 1887,
      "stern": 1888,
      "ked": 1889,
      "weder": 1890,
      "müssen": 1891,
      "QUE": 1892,
      "VINC": 1893,
      "light": 1894,
      "liegen": 1895,
      "last": 1896,
      "Here": 1897,
      "jeden": 1898,
      "falls": 1899,
      "folgen": 1900,
      "Ottilie": 1901,
      "QUEEN": 1902,
      "VINCENTIO": 1903,
      "Sinne": 1904,
      "ey": 1905,
      "kamen": 1906,
      "run": 1907,
      "manches": 1908,
      "suchte": 1909,
      "Wagen": 1910,
      "Ganz": 1911,
      "fallen": 1912,
      "gten": 1913,
      "za": 1914,
      "ckte": 1915,
      "herum": 1916,
      "Schmer": 1917,
      "unsere": 1918,
      "people": 1919,
      "being": 1920,
      "Shady": 1921,
      "fro": 1922,
      "kr": 1923,
      "zerst": 1924,
      "aufzu": 1925,
      "Wege": 1926,
      "wirklich": 1927,
      "El": 1928,
      "Tal": 1929,
      "Wel": 1930,
      "cro": 1931,
      "öl": 1932,
      "gesetzt": 1933,
      "welcher": 1934,
      "UM": 1935,
      "cle": 1936,
      "heute": 1937,
      "indung": 1938,
      "ängen": 1939,
      "reichen": 1940,
      "LAN": 1941,
      "long": 1942,
      "hlte": 1943,
      "beide": 1944,
      "hinein": 1945,
      "fragte": 1946,
      "HEN": 1947,
      "Stunden": 1948,
      "jedoch": 1949,
      "Eine": 1950,
      "änder": 1951,
      "Gegenwart": 1952,
      "verschieden": 1953,
      "Felsen": 1954,
      "ängst": 1955,
      "Männer": 1956,
      "Schauspiel": 1957,
      "cur": 1958,
      "ko": 1959,
      "pray": 1960,
      "genie": 1961,
      "urder": 1962,
      "elbst": 1963,
      "liebe": 1964,
      "both": 1965,
      "beschäft": 1966,
      "place": 1967,
      "neuen": 1968,
      "Nä": 1969,
      "uren": 1970,
      "dagegen": 1971,
      "nungen": 1972,
      "Chor": 1973,
      "fühlte": 1974,
      "Reineke": 1975,
      "Fä": 1976,
      "kö": 1977,
      "hinaus": 1978,
      "Sohn": 1979,
      "though": 1980,
      "Ho": 1981,
      "ise": 1982,
      "ennt": 1983,
      "Frem": 1984,
      "gefunden": 1985,
      "came": 1986,
      "frieden": 1987,
      "dein": 1988,
      "live": 1989,
      "gerade": 1990,
      "Well": 1991,
      "welches": 1992,
      "Meer": 1993,
      "hit": 1994,
      "min": 1995,
      "rer": 1996,
      "soul": 1997,
      "außer": 1998,
      "beat": 1999,
      "leid": 2000,
      "Am": 2001,
      "ME": 2002,
      "nt": 2003,
      "racht": 2004,
      "home": 2005,
      "jedem": 2006,
      "chtig": 2007,
      "gegangen": 2008,
      "ker": 2009,
      "vertrau": 2010,
      "Gespr": 2011,
      "while": 2012,
      "Pa": 2013,
      "hau": 2014,
      "stu": 2015,
      "dazu": 2016,
      "aufen": 2017,
      "heraus": 2018,
      "cannot": 2019,
      "gebil": 2020,
      "findet": 2021,
      "freundlich": 2022,
      "baby": 2023,
      "Jugend": 2024,
      "HENRY": 2025,
      "Kraft": 2026,
      "Par": 2027,
      "deine": 2028,
      "schle": 2029,
      "reu": 2030,
      "sehe": 2031,
      "neben": 2032,
      "sagt": 2033,
      "Schön": 2034,
      "ruhig": 2035,
      "Ihre": 2036,
      "Künst": 2037,
      "has": 2038,
      "hof": 2039,
      "iff": 2040,
      "zte": 2041,
      "erhalten": 2042,
      "many": 2043,
      "ligen": 2044,
      "full": 2045,
      "stände": 2046,
      "Licht": 2047,
      "arbei": 2048,
      "begeg": 2049,
      "words": 2050,
      "Gesicht": 2051,
      "letzten": 2052,
      "cy": 2053,
      "kind": 2054,
      "stay": 2055,
      "abzu": 2056,
      "selt": 2057,
      "pped": 2058,
      ".)": 2059,
      "bare": 2060,
      "tä": 2061,
      "ors": 2062,
      "uner": 2063,
      "Stunde": 2064,
      "bring": 2065,
      "könne": 2066,
      "Qu": 2067,
      "undert": 2068,
      "daher": 2069,
      "Schon": 2070,
      "Gelegenheit": 2071,
      "bleibt": 2072,
      "great": 2073,
      "honour": 2074,
      "Mir": 2075,
      "üre": 2076,
      "lay": 2077,
      "Lieb": 2078,
      "Phil": 2079,
      "Sonne": 2080,
      "ction": 2081,
      "sicher": 2082,
      "Recht": 2083,
      "bisher": 2084,
      "tief": 2085,
      "Sich": 2086,
      "bad": 2087,
      "eins": 2088,
      "imes": 2089,
      "sweet": 2090,
      "Gro": 2091,
      "Gut": 2092,
      "Je": 2093,
      "ina": 2094,
      "int": 2095,
      "teten": 2096,
      "schwe": 2097,
      "hörte": 2098,
      "Boden": 2099,
      "Get": 2100,
      "Göt": 2101,
      "lim": 2102,
      "rt": 2103,
      "erre": 2104,
      "reck": 2105,
      "überze": 2106,
      "schaffen": 2107,
      "niemals": 2108,
      "würdig": 2109,
      "Reise": 2110,
      "Volk": 2111,
      "Ach": 2112,
      "Bü": 2113,
      "YOR": 2114,
      "band": 2115,
      "hie": 2116,
      "ws": 2117,
      "xt": 2118,
      "Beweg": 2119,
      "ruh": 2120,
      "Feuer": 2121,
      "heaven": 2122,
      "eyes": 2123,
      "YORK": 2124,
      "Dien": 2125,
      "Hei": 2126,
      "Pap": 2127,
      "TH": 2128,
      "Wol": 2129,
      "bist": 2130,
      "beim": 2131,
      "höchst": 2132,
      "natür": 2133,
      "dür": 2134,
      "iz": 2135,
      "mm": 2136,
      "stren": 2137,
      "dadurch": 2138,
      "maßen": 2139,
      "leider": 2140,
      "größten": 2141,
      "Fuck": 2142,
      "ew": 2143,
      "ia": 2144,
      "schick": 2145,
      "daran": 2146,
      "weniger": 2147,
      "ways": 2148,
      "Tod": 2149,
      "imme": 2150,
      "INIUS": 2151,
      "fanden": 2152,
      "Herrn": 2153,
      "großer": 2154,
      "lebha": 2155,
      "Like": 2156,
      "friends": 2157,
      "Trä": 2158,
      "ka": 2159,
      "nei": 2160,
      "ens": 2161,
      "those": 2162,
      "isse": 2163,
      "hnung": 2164,
      "Pferde": 2165,
      "Eigen": 2166,
      "jem": 2167,
      "vil": 2168,
      "ree": 2169,
      "bear": 2170,
      "verd": 2171,
      "ammer": 2172,
      "hinauf": 2173,
      "dige": 2174,
      "vollen": 2175,
      "Luft": 2176,
      "ix": 2177,
      "ason": 2178,
      "noble": 2179,
      "trei": 2180,
      "mögen": 2181,
      "Fen": 2182,
      "Hel": 2183,
      "PET": 2184,
      "dra": 2185,
      "went": 2186,
      "übel": 2187,
      "test": 2188,
      "schwei": 2189,
      "alien": 2190,
      "leuch": 2191,
      "lebt": 2192,
      "mem": 2193,
      "urt": 2194,
      "dahin": 2195,
      "ilie": 2196,
      "stop": 2197,
      "iti": 2198,
      "denk": 2199,
      "legte": 2200,
      "vers": 2201,
      "hope": 2202,
      "Theater": 2203,
      "Wider": 2204,
      "glaubte": 2205,
      "Ay": 2206,
      "Brief": 2207,
      "ED": 2208,
      "GR": 2209,
      "Mich": 2210,
      "pfen": 2211,
      "statt": 2212,
      "scht": 2213,
      "ded": 2214,
      "wife": 2215,
      "mancher": 2216,
      "nisse": 2217,
      "Wirk": 2218,
      "sucht": 2219,
      "Sto": 2220,
      "WARD": 2221,
      "ull": 2222,
      "stür": 2223,
      "eile": 2224,
      "gehalten": 2225,
      "achtet": 2226,
      "ett": 2227,
      "quem": 2228,
      "wenigstens": 2229,
      "Brust": 2230,
      "EDWARD": 2231,
      "act": 2232,
      "beit": 2233,
      "anken": 2234,
      "its": 2235,
      "loß": 2236,
      "kleine": 2237,
      "Gebir": 2238,
      "früh": 2239,
      ",--": 2240,
      "Don": 2241,
      "Jahre": 2242,
      "Namen": 2243,
      "bie": 2244,
      "child": 2245,
      "thus": 2246,
      "cks": 2247,
      "doth": 2248,
      "laß": 2249,
      "gesche": 2250,
      "reifen": 2251,
      "sollten": 2252,
      "darüber": 2253,
      "ruder": 2254,
      "vollkommen": 2255,
      "Höhe": 2256,
      "On": 2257,
      "Zwei": 2258,
      "zw": 2259,
      "zy": 2260,
      "chmal": 2261,
      "once": 2262,
      "heran": 2263,
      "Ange": 2264,
      "gefähr": 2265,
      "By": 2266,
      "MEN": 2267,
      "cour": 2268,
      "sing": 2269,
      "stie": 2270,
      "rap": 2271,
      "eilte": 2272,
      "konnten": 2273,
      "daughter": 2274,
      "Fol": 2275,
      "LUC": 2276,
      "Seiten": 2277,
      "UT": 2278,
      "turn": 2279,
      "wend": 2280,
      "enough": 2281,
      "bewe": 2282,
      "else": 2283,
      "ush": 2284,
      "zeigte": 2285,
      "ive": 2286,
      "ither": 2287,
      "told": 2288,
      "ihres": 2289,
      "änge": 2290,
      "quick": 2291,
      "grace": 2292,
      "angenehm": 2293,
      "Personen": 2294,
      "Frie": 2295,
      "Trau": 2296,
      "kün": 2297,
      "tat": 2298,
      "cho": 2299,
      "dest": 2300,
      "hohen": 2301,
      "schaften": 2302,
      "früher": 2303,
      "Har": 2304,
      "bat": 2305,
      "mei": 2306,
      "ound": 2307,
      "sup": 2308,
      "thin": 2309,
      "einst": 2310,
      "aters": 2311,
      "tend": 2312,
      "licht": 2313,
      "duld": 2314,
      "kennt": 2315,
      "bilden": 2316,
      "bur": 2317,
      "fangen": 2318,
      "kunft": 2319,
      "annt": 2320,
      "Unglück": 2321,
      "Lage": 2322,
      "gingen": 2323,
      "inken": 2324,
      "anders": 2325,
      "left": 2326,
      "lichsten": 2327,
      "Gemü": 2328,
      "überall": 2329,
      "ücke": 2330,
      "Leute": 2331,
      "pres": 2332,
      "Chorus": 2333,
      "Bruder": 2334,
      "Mas": 2335,
      "MAR": 2336,
      "bot": 2337,
      "nöt": 2338,
      "amm": 2339,
      "Beg": 2340,
      "vielen": 2341,
      "Nachbar": 2342,
      "Kopf": 2343,
      "Bar": 2344,
      "cut": 2345,
      "dachte": 2346,
      "itte": 2347,
      "desto": 2348,
      "ernst": 2349,
      "Anblick": 2350,
      "heiten": 2351,
      "Menge": 2352,
      "gefallen": 2353,
      "talk": 2354,
      "gehn": 2355,
      "genau": 2356,
      "denke": 2357,
      "etz": 2358,
      "rige": 2359,
      "leiden": 2360,
      "Aufmerk": 2361,
      "Edward": 2362,
      "Dann": 2363,
      "May": 2364,
      "ban": 2365,
      "fert": 2366,
      "pl": 2367,
      "pack": 2368,
      "ähn": 2369,
      "gehe": 2370,
      "led": 2371,
      "Betracht": 2372,
      "ROME": 2373,
      "Garten": 2374,
      "ROMEO": 2375,
      "Can": 2376,
      "Pr": 2377,
      "cre": 2378,
      "erg": 2379,
      "hrten": 2380,
      "ison": 2381,
      "manche": 2382,
      "rage": 2383,
      "iere": 2384,
      "Begriff": 2385,
      "ENIUS": 2386,
      "Rede": 2387,
      "Gewalt": 2388,
      "tausend": 2389,
      "MENENIUS": 2390,
      "Lot": 2391,
      "erinn": 2392,
      "ault": 2393,
      "langt": 2394,
      "tain": 2395,
      "From": 2396,
      "HA": 2397,
      "Kör": 2398,
      "Meine": 2399,
      "OM": 2400,
      "hung": 2401,
      "hang": 2402,
      "ting": 2403,
      "wü": 2404,
      "wall": 2405,
      "another": 2406,
      "unsch": 2407,
      "ters": 2408,
      "welchem": 2409,
      "näch": 2410,
      "unserm": 2411,
      "schuldig": 2412,
      "Tisch": 2413,
      "Wein": 2414,
      "hoff": 2415,
      "einzu": 2416,
      "Ruhe": 2417,
      "ready": 2418,
      "Bewegung": 2419,
      "Aufmerksamkeit": 2420,
      "Gleich": 2421,
      "RUCH": 2422,
      "clo": 2423,
      "erblick": 2424,
      "ought": 2425,
      "rechten": 2426,
      "tritt": 2427,
      "ückt": 2428,
      "half": 2429,
      "jedes": 2430,
      "äume": 2431,
      "fühlt": 2432,
      "queen": 2433,
      "kurz": 2434,
      "schreiben": 2435,
      "Künstler": 2436,
      "PETRUCH": 2437,
      "PETRUCHIO": 2438,
      "Mus": 2439,
      "sm": 2440,
      "sahen": 2441,
      "going": 2442,
      "wenden": 2443,
      "Jahren": 2444,
      "Tre": 2445,
      "TES": 2446,
      "lden": 2447,
      "rän": 2448,
      "nder": 2449,
      "einge": 2450,
      "gehört": 2451,
      "vern": 2452,
      "herz": 2453,
      "wolle": 2454,
      "ruck": 2455,
      "teils": 2456,
      "Schicksal": 2457,
      "genießen": 2458,
      "fassen": 2459,
      "ichten": 2460,
      "around": 2461,
      "ned": 2462,
      "manchmal": 2463,
      "stet": 2464,
      "vorbei": 2465,
      "teilen": 2466,
      "Grund": 2467,
      "His": 2468,
      "Jün": 2469,
      "pain": 2470,
      "rat": 2471,
      "zeigen": 2472,
      "ask": 2473,
      "gling": 2474,
      "Dre": 2475,
      "Kü": 2476,
      "onnen": 2477,
      "samen": 2478,
      "unsre": 2479,
      "Verb": 2480,
      "rieben": 2481,
      "kannt": 2482,
      "tag": 2483,
      "gelassen": 2484,
      "änden": 2485,
      "beglei": 2486,
      "Ort": 2487,
      "Wahr": 2488,
      "Alles": 2489,
      "side": 2490,
      "wünschte": 2491,
      "itizen": 2492,
      "End": 2493,
      "Fam": 2494,
      "bten": 2495,
      "hy": 2496,
      "ütz": 2497,
      "ones": 2498,
      "elte": 2499,
      "late": 2500,
      "prochen": 2501,
      "schienen": 2502,
      "merkte": 2503,
      "Plan": 2504,
      "Rich": 2505,
      "Raum": 2506,
      "big": 2507,
      "fight": 2508,
      "scheinen": 2509,
      "seem": 2510,
      "sound": 2511,
      "form": 2512,
      "dringen": 2513,
      "Second": 2514,
      "lebhaft": 2515,
      "bildung": 2516,
      "Alle": 2517,
      "COR": 2518,
      "IZ": 2519,
      "Türe": 2520,
      "after": 2521,
      "ief": 2522,
      "auern": 2523,
      "ande": 2524,
      "Gefahr": 2525,
      "tri": 2526,
      "jede": 2527,
      "IOLAN": 2528,
      "Noch": 2529,
      "Hauptmann": 2530,
      "gnügen": 2531,
      "Gespräch": 2532,
      "member": 2533,
      "CORIOLAN": 2534,
      "CORIOLANUS": 2535,
      "Bil": 2536,
      "Mel": 2537,
      "ces": 2538,
      "ech": 2539,
      "pat": 2540,
      "since": 2541,
      "itch": 2542,
      "mittel": 2543,
      "umher": 2544,
      "willen": 2545,
      "power": 2546,
      "Krie": 2547,
      "Tro": 2548,
      "ning": 2549,
      "pur": 2550,
      "umen": 2551,
      "äter": 2552,
      "ene": 2553,
      "heard": 2554,
      "ely": 2555,
      "kannte": 2556,
      "äumen": 2557,
      "gedacht": 2558,
      ").": 2559,
      "BA": 2560,
      "Lau": 2561,
      "fire": 2562,
      "zend": 2563,
      "ichtet": 2564,
      "hed": 2565,
      "els": 2566,
      "mack": 2567,
      "nunmehr": 2568,
      "poor": 2569,
      "morgen": 2570,
      "Mittel": 2571,
      "erzählen": 2572,
      "Tränen": 2573,
      "At": 2574,
      "Pal": 2575,
      "ling": 2576,
      "sand": 2577,
      "indes": 2578,
      "warum": 2579,
      "things": 2580,
      "Wohl": 2581,
      "Tagen": 2582,
      "please": 2583,
      "Berg": 2584,
      "haltung": 2585,
      "bemerken": 2586,
      "Fein": 2587,
      "flie": 2588,
      "val": 2589,
      "äß": 2590,
      "erfahren": 2591,
      "gestellt": 2592,
      "igsten": 2593,
      "entde": 2594,
      "führte": 2595,
      "ätigkeit": 2596,
      "high": 2597,
      "against": 2598,
      "Knaben": 2599,
      "Chr": 2600,
      "Hen": 2601,
      "IV": 2602,
      "Na": 2603,
      "Wunder": 2604,
      "dou": 2605,
      "deinen": 2606,
      "hst": 2607,
      "jungen": 2608,
      "sick": 2609,
      "erk": 2610,
      "geln": 2611,
      "diesmal": 2612,
      "Than": 2613,
      "Look": 2614,
      "skraft": 2615,
      "einzel": 2616,
      "Ex": 2617,
      "Vo": 2618,
      "bun": 2619,
      "ball": 2620,
      "zimmer": 2621,
      "zug": 2622,
      "zufrieden": 2623,
      "hoch": 2624,
      "selten": 2625,
      "INA": 2626,
      "help": 2627,
      "stillen": 2628,
      "III": 2629,
      "Fenster": 2630,
      "tes": 2631,
      "tong": 2632,
      "enth": 2633,
      "andre": 2634,
      "lichste": 2635,
      "ungl": 2636,
      "wirken": 2637,
      "eilen": 2638,
      "solcher": 2639,
      "Fest": 2640,
      "ubli": 2641,
      "gewöhnlich": 2642,
      "sleep": 2643,
      "Buch": 2644,
      "Dar": 2645,
      "Sir": 2646,
      "ba": 2647,
      "erklär": 2648,
      "indessen": 2649,
      "belie": 2650,
      "herbei": 2651,
      "etter": 2652,
      "Stimme": 2653,
      "urcht": 2654,
      "Vertrau": 2655,
      "Alte": 2656,
      "schönsten": 2657,
      "heimnis": 2658,
      "richten": 2659,
      "Leidenschaft": 2660,
      "Dor": 2661,
      "Ga": 2662,
      "times": 2663,
      "walk": 2664,
      "ister": 2665,
      "dick": 2666,
      "Some": 2667,
      "Tochter": 2668,
      "jenen": 2669,
      "müsse": 2670,
      "ungehe": 2671,
      "Worten": 2672,
      "Geld": 2673,
      "news": 2674,
      "entschieden": 2675,
      "Kon": 2676,
      "Rat": 2677,
      "cr": 2678,
      "pass": 2679,
      "tut": 2680,
      "start": 2681,
      "thank": 2682,
      "Erst": 2683,
      "Dieser": 2684,
      "hands": 2685,
      "nütz": 2686,
      "wrong": 2687,
      "Nie": 2688,
      "Oheim": 2689,
      "Zeiten": 2690,
      "care": 2691,
      "fang": 2692,
      "os": 2693,
      "sy": 2694,
      "sü": 2695,
      "ugt": 2696,
      "iele": 2697,
      "oud": 2698,
      "bequem": 2699,
      "jenes": 2700,
      "deutlich": 2701,
      "crown": 2702,
      "Brau": 2703,
      "af": 2704,
      "kid": 2705,
      "mmer": 2706,
      "ossen": 2707,
      "sl": 2708,
      "erkennen": 2709,
      "char": 2710,
      "stri": 2711,
      "eigt": 2712,
      "rep": 2713,
      "immen": 2714,
      "kehren": 2715,
      "does": 2716,
      "gesprochen": 2717,
      "vielmehr": 2718,
      "Geschäft": 2719,
      "wollten": 2720,
      "Charlotten": 2721,
      "unglück": 2722,
      "bau": 2723,
      "bid": 2724,
      "kin": 2725,
      "alter": 2726,
      "sage": 2727,
      "gewä": 2728,
      "geblieben": 2729,
      "something": 2730,
      "Besitz": 2731,
      "ständig": 2732,
      "unserer": 2733,
      "Hä": 2734,
      "Selbst": 2735,
      "bus": 2736,
      "hte": 2737,
      "ons": 2738,
      "sogar": 2739,
      "ford": 2740,
      "gessen": 2741,
      "Vergnügen": 2742,
      "morrow": 2743,
      "zeigt": 2744,
      "Busen": 2745,
      "Kan": 2746,
      "falt": 2747,
      "ius": 2748,
      "ud": 2749,
      "inen": 2750,
      "holen": 2751,
      "faßt": 2752,
      "pfer": 2753,
      "mochte": 2754,
      "Wilhelmen": 2755,
      "stellung": 2756,
      "Fall": 2757,
      "dur": 2758,
      "lesen": 2759,
      "murder": 2760,
      "ash": 2761,
      "schwar": 2762,
      "beste": 2763,
      "without": 2764,
      "bringt": 2765,
      "broke": 2766,
      "Warwick": 2767,
      "Serlo": 2768,
      "verloren": 2769,
      "Kirche": 2770,
      "cor": 2771,
      "pon": 2772,
      "uth": 2773,
      "wach": 2774,
      "dergleichen": 2775,
      "igung": 2776,
      "herunter": 2777,
      "low": 2778,
      "dient": 2779,
      "cold": 2780,
      "grau": 2781,
      "Arme": 2782,
      "wohnt": 2783,
      "crazy": 2784,
      "Christ": 2785,
      "Mal": 2786,
      "Pe": 2787,
      "hour": 2788,
      "kne": 2789,
      "nig": 2790,
      "iness": 2791,
      "schließen": 2792,
      "vere": 2793,
      "lieber": 2794,
      "law": 2795,
      "mad": 2796,
      "setzt": 2797,
      "hätten": 2798,
      "Flü": 2799,
      "Far": 2800,
      "Mond": 2801,
      "Tis": 2802,
      "cal": 2803,
      "ehe": 2804,
      "ys": 2805,
      "outh": 2806,
      "vermehr": 2807,
      "verlassen": 2808,
      "hinzu": 2809,
      "darin": 2810,
      "Arbeit": 2811,
      "Geschichte": 2812,
      "Ord": 2813,
      "',": 2814,
      "RAN": 2815,
      "Ther": 2816,
      "munter": 2817,
      "sla": 2818,
      "sure": 2819,
      "tü": 2820,
      "ory": 2821,
      "deten": 2822,
      "hrer": 2823,
      "spit": 2824,
      "komm": 2825,
      "peace": 2826,
      "finde": 2827,
      "ELLA": 2828,
      "ISAB": 2829,
      "Romeo": 2830,
      "Philine": 2831,
      "ISABELLA": 2832,
      "Hin": 2833,
      "Hal": 2834,
      "Heil": 2835,
      "ST": 2836,
      "jung": 2837,
      "nimmt": 2838,
      "üt": 2839,
      "verw": 2840,
      "besuch": 2841,
      "gewissen": 2842,
      "geschlossen": 2843,
      "gotta": 2844,
      "akter": 2845,
      "Gebäu": 2846,
      "brechen": 2847,
      "guess": 2848,
      "VI": 2849,
      "Wür": 2850,
      "för": 2851,
      "mist": 2852,
      "nut": 2853,
      "erne": 2854,
      "always": 2855,
      "sold": 2856,
      "bereit": 2857,
      "fühle": 2858,
      "gewalt": 2859,
      "Schritt": 2860,
      "young": 2861,
      "Frü": 2862,
      "air": 2863,
      "deiner": 2864,
      "matter": 2865,
      "used": 2866,
      "ont": 2867,
      "ouch": 2868,
      "seh": 2869,
      "meet": 2870,
      "next": 2871,
      "happ": 2872,
      "rot": 2873,
      "roy": 2874,
      "ums": 2875,
      "getro": 2876,
      "geschick": 2877,
      "Werk": 2878,
      "Have": 2879,
      "break": 2880,
      "cious": 2881,
      "Augenblicke": 2882,
      "Bel": 2883,
      "IET": 2884,
      "JUL": 2885,
      "Rück": 2886,
      "eye": 2887,
      "hundert": 2888,
      "lfe": 2889,
      "change": 2890,
      "denkt": 2891,
      "med": 2892,
      "sent": 2893,
      "Schiff": 2894,
      "Ern": 2895,
      "jest": 2896,
      "pfel": 2897,
      "helfen": 2898,
      "guter": 2899,
      "ONTES": 2900,
      "LEONTES": 2901,
      "JULIET": 2902,
      "IL": 2903,
      "Nay": 2904,
      "Wün": 2905,
      "hus": 2906,
      "ritt": 2907,
      "san": 2908,
      "schätz": 2909,
      "reg": 2910,
      "stehn": 2911,
      "Wieder": 2912,
      "eignen": 2913,
      "Willen": 2914,
      "köst": 2915,
      "ewig": 2916,
      "DY": 2917,
      "Jar": 2918,
      "Ton": 2919,
      "bill": 2920,
      "länger": 2921,
      "ton": 2922,
      "vin": 2923,
      "ös": 2924,
      "ield": 2925,
      "iegel": 2926,
      "thar": 2927,
      "scheiden": 2928,
      "lief": 2929,
      "voraus": 2930,
      "gold": 2931,
      "himself": 2932,
      "Arm": 2933,
      "ört": 2934,
      "Tages": 2935,
      "Good": 2936,
      "bereitet": 2937,
      "streng": 2938,
      "Hände": 2939,
      "Kar": 2940,
      "Krä": 2941,
      "gü": 2942,
      "none": 2943,
      "nennen": 2944,
      "öpf": 2945,
      "geführt": 2946,
      "rec": 2947,
      "reason": 2948,
      "sodann": 2949,
      "ichter": 2950,
      "ftigen": 2951,
      "durchaus": 2952,
      "nahe": 2953,
      "Uns": 2954,
      "welchen": 2955,
      "seid": 2956,
      "antwor": 2957,
      "spricht": 2958,
      "Freuden": 2959,
      "LADY": 2960,
      "Jarno": 2961,
      "CE": 2962,
      "Dank": 2963,
      "Ir": 2964,
      "VOL": 2965,
      "kte": 2966,
      "klei": 2967,
      "pfe": 2968,
      "erfreu": 2969,
      "stru": 2970,
      "teuer": 2971,
      "lly": 2972,
      "forth": 2973,
      "lady": 2974,
      "yourself": 2975,
      "ENCE": 2976,
      "Weib": 2977,
      "Engl": 2978,
      "Lothar": 2979,
      "Straße": 2980,
      "Ordnung": 2981,
      "BR": 2982,
      "Seine": 2983,
      "TA": 2984,
      "ith": 2985,
      "läu": 2986,
      "state": 2987,
      "dear": 2988,
      "inger": 2989,
      "etwa": 2990,
      "Schla": 2991,
      "dow": 2992,
      "höher": 2993,
      "Spa": 2994,
      "gemeinen": 2995,
      "ebenso": 2996,
      "follow": 2997,
      "Gelie": 2998,
      "Sprache": 2999,
      "trieben": 3000,
      "Nähe": 3001,
      "verdrie": 3002,
      "CL": 3003,
      "Citizen": 3004,
      "Ele": 3005,
      "Ke": 3006,
      "Tätigkeit": 3007,
      "abend": 3008,
      "cry": 3009,
      "fit": 3010,
      "inden": 3011,
      "aunen": 3012,
      "cker": 3013,
      "elten": 3014,
      "drängt": 3015,
      "mehrere": 3016,
      "Blut": 3017,
      "sämt": 3018,
      "Empfindung": 3019,
      "Sorge": 3020,
      "tongue": 3021,
      "husband": 3022,
      "Lothario": 3023,
      "Eind": 3024,
      "Glie": 3025,
      "tal": 3026,
      "real": 3027,
      "ird": 3028,
      "verwand": 3029,
      "aufmerk": 3030,
      "hence": 3031,
      "Schne": 3032,
      "reiten": 3033,
      "nah": 3034,
      "Herren": 3035,
      "ischer": 3036,
      "Wirt": 3037,
      "treu": 3038,
      "flü": 3039,
      "Charakter": 3040,
      "schauen": 3041,
      "Deut": 3042,
      "gebildet": 3043,
      "geschehen": 3044,
      "nötig": 3045,
      "SIC": 3046,
      "Thr": 3047,
      "ious": 3048,
      "meist": 3049,
      "wicht": 3050,
      "gemein": 3051,
      "gezogen": 3052,
      "bergen": 3053,
      "wear": 3054,
      "reif": 3055,
      "rieb": 3056,
      "ried": 3057,
      "druck": 3058,
      "comp": 3059,
      "Thy": 3060,
      "ständen": 3061,
      "sitzen": 3062,
      "Hügel": 3063,
      "Schwester": 3064,
      "SICINIUS": 3065,
      "Ah": 3066,
      "Per": 3067,
      "Zum": 3068,
      "hone": 3069,
      "hard": 3070,
      "haupt": 3071,
      "junge": 3072,
      "üben": 3073,
      "seen": 3074,
      "beha": 3075,
      "hrend": 3076,
      "hoben": 3077,
      "langte": 3078,
      "Unser": 3079,
      "Armen": 3080,
      "würden": 3081,
      "Unterhaltung": 3082,
      "wünschen": 3083,
      "höchsten": 3084,
      "damn": 3085,
      "Schmerz": 3086,
      "Aben": 3087,
      "Brie": 3088,
      "Tor": 3089,
      "Yor": 3090,
      "born": 3091,
      "dream": 3092,
      "ks": 3093,
      "mis": 3094,
      "mom": 3095,
      "va": 3096,
      "vis": 3097,
      "ates": 3098,
      "schied": 3099,
      "berü": 3100,
      "eilt": 3101,
      "klar": 3102,
      "laub": 3103,
      "eign": 3104,
      "gestern": 3105,
      "Richard": 3106,
      "Gast": 3107,
      "gst": 3108,
      "vy": 3109,
      "ition": 3110,
      "tent": 3111,
      "lebend": 3112,
      "herauf": 3113,
      "mensch": 3114,
      "trug": 3115,
      "vorzu": 3116,
      "vorüber": 3117,
      "master": 3118,
      "entwick": 3119,
      "ship": 3120,
      "brig": 3121,
      "gleichsam": 3122,
      "unterhalten": 3123,
      "solle": 3124,
      "free": 3125,
      "Marian": 3126,
      "earth": 3127,
      "Teu": 3128,
      "einigermaßen": 3129,
      "Sachen": 3130,
      "Ufer": 3131,
      "Wunsch": 3132,
      "each": 3133,
      "fach": 3134,
      "schme": 3135,
      "dent": 3136,
      "verg": 3137,
      "herab": 3138,
      "wodurch": 3139,
      "ets": 3140,
      "ürger": 3141,
      "gerichtet": 3142,
      "thousand": 3143,
      "stande": 3144,
      "music": 3145,
      "mäßig": 3146,
      "GRE": 3147,
      "fertig": 3148,
      "Jüngling": 3149,
      "Hat": 3150,
      "Hast": 3151,
      "kten": 3152,
      "knew": 3153,
      "stum": 3154,
      "alone": 3155,
      "irt": 3156,
      "heben": 3157,
      "ierte": 3158,
      "anzen": 3159,
      "Soll": 3160,
      "abermals": 3161,
      "ppe": 3162,
      "pping": 3163,
      "ardon": 3164,
      "machten": 3165,
      "Gegenstände": 3166,
      "letzte": 3167,
      "zieht": 3168,
      "haup": 3169,
      "Endlich": 3170,
      "York": 3171,
      "Sü": 3172,
      "Slim": 3173,
      "Wetter": 3174,
      "Zwe": 3175,
      "fault": 3176,
      "kür": 3177,
      "keiner": 3178,
      "plan": 3179,
      "unto": 3180,
      "ats": 3181,
      "damals": 3182,
      "nahme": 3183,
      "sprang": 3184,
      "anderer": 3185,
      "blow": 3186,
      "dienen": 3187,
      "joy": 3188,
      "jemand": 3189,
      "LUCIO": 3190,
      "Teufel": 3191,
      "Baum": 3192,
      "Every": 3193,
      "Vaters": 3194,
      "tät": 3195,
      "vill": 3196,
      "wit": 3197,
      "ane": 3198,
      "dad": 3199,
      "lost": 3200,
      "woman": 3201,
      "spir": 3202,
      "makes": 3203,
      "rift": 3204,
      "hinab": 3205,
      "glän": 3206,
      "lasse": 3207,
      "Freunden": 3208,
      "Geschick": 3209,
      "Betragen": 3210,
      "Verhältnisse": 3211,
      "Mign": 3212,
      "Wert": 3213,
      "deinem": 3214,
      "hoffen": 3215,
      "miss": 3216,
      "vel": 3217,
      "gether": 3218,
      "aust": 3219,
      "ator": 3220,
      "verli": 3221,
      "uchs": 3222,
      "gesell": 3223,
      "gewinnen": 3224,
      "geschrieben": 3225,
      "Reich": 3226,
      "white": 3227,
      "Alter": 3228,
      "gebens": 3229,
      "stille": 3230,
      "therefore": 3231,
      "Laß": 3232,
      "unehmen": 3233,
      "Indessen": 3234,
      "Kreis": 3235,
      "eher": 3236,
      "fig": 3237,
      "satz": 3238,
      "zar": 3239,
      "eier": 3240,
      "saw": 3241,
      "ket": 3242,
      "lige": 3243,
      "Schw": 3244,
      "Gefä": 3245,
      "ama": 3246,
      "duke": 3247,
      "fürchte": 3248,
      "ience": 3249,
      "Feld": 3250,
      "answer": 3251,
      "gegenwärtig": 3252,
      "beschäftigt": 3253,
      "Prin": 3254,
      "believe": 3255,
      "Even": 3256,
      "kno": 3257,
      "kel": 3258,
      "gelegt": 3259,
      "really": 3260,
      "laßt": 3261,
      "überras": 3262,
      "Stein": 3263,
      "Verse": 3264,
      "Dies": 3265,
      "dio": 3266,
      "serv": 3267,
      "gleichfalls": 3268,
      "drücken": 3269,
      "pose": 3270,
      "fool": 3271,
      "game": 3272,
      "zeichnet": 3273,
      "Urs": 3274,
      "fle": 3275,
      "mmen": 3276,
      "übrig": 3277,
      "bemerkte": 3278,
      "Geheimnis": 3279,
      "hinunter": 3280,
      "gewisse": 3281,
      "ltig": 3282,
      "Alten": 3283,
      "Freundin": 3284,
      "stellte": 3285,
      "Allein": 3286,
      "Lande": 3287,
      "schlug": 3288,
      "lernen": 3289,
      "meisten": 3290,
      "present": 3291,
      "Sti": 3292,
      "Tür": 3293,
      "Zug": 3294,
      "bö": 3295,
      "cap": 3296,
      "meister": 3297,
      "suck": 3298,
      "ßlich": 3299,
      "thine": 3300,
      "gebe": 3301,
      "unbe": 3302,
      "schn": 3303,
      "together": 3304,
      "bern": 3305,
      "warf": 3306,
      "holt": 3307,
      "liebt": 3308,
      "Stand": 3309,
      "Anst": 3310,
      "daraus": 3311,
      "vieles": 3312,
      "ETH": 3313,
      "ELIZ": 3314,
      "Bildung": 3315,
      "ABETH": 3316,
      "black": 3317,
      "Schauspieler": 3318,
      "mancherlei": 3319,
      "ELIZABETH": 3320,
      "Yet": 3321,
      "cen": 3322,
      "mat": 3323,
      "plat": 3324,
      "wish": 3325,
      "watch": 3326,
      "three": 3327,
      "gelegen": 3328,
      "gehabt": 3329,
      "zuerst": 3330,
      "remember": 3331,
      "sobald": 3332,
      "ierde": 3333,
      "fellow": 3334,
      "selves": 3335,
      "Verwand": 3336,
      "Erzä": 3337,
      "arewell": 3338,
      "Einbildung": 3339,
      "klein": 3340,
      "whole": 3341,
      "größte": 3342,
      "immung": 3343,
      "Franz": 3344,
      "Nurse": 3345,
      "erscheinen": 3346,
      "Dingen": 3347,
      "Fig": 3348,
      "IAN": 3349,
      "fly": 3350,
      "mouth": 3351,
      "person": 3352,
      "smo": 3353,
      "ufen": 3354,
      "ult": 3355,
      "ßig": 3356,
      "gewohnt": 3357,
      "unver": 3358,
      "schlä": 3359,
      "isten": 3360,
      "dopp": 3361,
      "reise": 3362,
      "reisen": 3363,
      "heir": 3364,
      "Vorteil": 3365,
      "Entfern": 3366,
      "bably": 3367,
      "Wirkung": 3368,
      "Wahrheit": 3369,
      "!\"": 3370,
      "Eben": 3371,
      "Jo": 3372,
      "Meister": 3373,
      "Our": 3374,
      "aden": 3375,
      "lungen": 3376,
      "endet": 3377,
      "throw": 3378,
      "tot": 3379,
      "Schöne": 3380,
      "fehlen": 3381,
      "getragen": 3382,
      "zehn": 3383,
      "Reg": 3384,
      "lass": 3385,
      "solches": 3386,
      "coming": 3387,
      "song": 3388,
      "frisch": 3389,
      "Blät": 3390,
      "Blumen": 3391,
      "sorg": 3392,
      "Eltern": 3393,
      "Wolken": 3394,
      "Musik": 3395,
      "Familie": 3396,
      "Henry": 3397,
      "Flam": 3398,
      "IA": 3399,
      "hing": 3400,
      "chite": 3401,
      "melt": 3402,
      "hohe": 3403,
      "ürf": 3404,
      "Erschein": 3405,
      "edlen": 3406,
      "besit": 3407,
      "igem": 3408,
      "grim": 3409,
      "obgleich": 3410,
      "years": 3411,
      "sub": 3412,
      "),": 3413,
      "Cl": 3414,
      "Dinge": 3415,
      "Gute": 3416,
      "PER": 3417,
      "WIC": 3418,
      "eh": 3419,
      "hind": 3420,
      "ms": 3421,
      "stein": 3422,
      "rather": 3423,
      "indungen": 3424,
      "bese": 3425,
      "grow": 3426,
      "seien": 3427,
      "würd": 3428,
      "schöner": 3429,
      "Spiel": 3430,
      "gestalt": 3431,
      "days": 3432,
      "Take": 3433,
      "glaubt": 3434,
      "swear": 3435,
      "Zeichen": 3436,
      "Pflicht": 3437,
      "Shall": 3438,
      "Einbildungskraft": 3439,
      "Pfa": 3440,
      "WAR": 3441,
      "agt": 3442,
      "krä": 3443,
      "schar": 3444,
      "Schrei": 3445,
      "laden": 3446,
      "Aure": 3447,
      "sollt": 3448,
      "ground": 3449,
      "ertes": 3450,
      "ict": 3451,
      "würdige": 3452,
      "wären": 3453,
      "ziemlich": 3454,
      "fällt": 3455,
      "freien": 3456,
      "Gebäude": 3457,
      "happy": 3458,
      "Mignon": 3459,
      "WICK": 3460,
      "WARWICK": 3461,
      "Blat": 3462,
      "Knie": 3463,
      "cess": 3464,
      "pun": 3465,
      "pull": 3466,
      "rung": 3467,
      "schlagen": 3468,
      "beau": 3469,
      "vergessen": 3470,
      "lichem": 3471,
      "imp": 3472,
      "saß": 3473,
      "Schatz": 3474,
      "lage": 3475,
      "ugs": 3476,
      "ffer": 3477,
      "Genuß": 3478,
      "Mühe": 3479,
      "Körper": 3480,
      "ublik": 3481,
      "aufmerksam": 3482,
      "Glas": 3483,
      "King": 3484,
      "Say": 3485,
      "kn": 3486,
      "ress": 3487,
      "enden": 3488,
      "erwider": 3489,
      "stär": 3490,
      "schreck": 3491,
      "bert": 3492,
      "wed": 3493,
      "hop": 3494,
      "selber": 3495,
      "Erinner": 3496,
      "Gesin": 3497,
      "ganzes": 3498,
      "freut": 3499,
      "jenem": 3500,
      "Geschle": 3501,
      "open": 3502,
      "wollt": 3503,
      "Absicht": 3504,
      "lords": 3505,
      "hielten": 3506,
      "paar": 3507,
      "straight": 3508,
      "bemerkt": 3509,
      "Liebha": 3510,
      "Ehren": 3511,
      "HOR": 3512,
      "Ty": 3513,
      "ili": 3514,
      "eröff": 3515,
      "lear": 3516,
      "fordert": 3517,
      "lies": 3518,
      "ierten": 3519,
      "Inn": 3520,
      "pect": 3521,
      "Heute": 3522,
      "These": 3523,
      "ousin": 3524,
      "eigenen": 3525,
      "found": 3526,
      "fragen": 3527,
      "brain": 3528,
      "CAP": 3529,
      "interess": 3530,
      "Hofe": 3531,
      "Folge": 3532,
      "wendig": 3533,
      "HAM": 3534,
      "Ernst": 3535,
      "GAR": 3536,
      "Still": 3537,
      "mic": 3538,
      "ächt": 3539,
      "unt": 3540,
      "leg": 3541,
      "room": 3542,
      "utz": 3543,
      "stehe": 3544,
      "truth": 3545,
      "mahl": 3546,
      "goes": 3547,
      "wait": 3548,
      "prince": 3549,
      "prison": 3550,
      "Regen": 3551,
      "Mannes": 3552,
      "wegs": 3553,
      "achtete": 3554,
      "glauben": 3555,
      "looks": 3556,
      "Kindern": 3557,
      "ULET": 3558,
      "Freiheit": 3559,
      "Götter": 3560,
      "MARGAR": 3561,
      "CAPULET": 3562,
      "MARGARET": 3563,
      "Ca": 3564,
      "Kä": 3565,
      "Miß": 3566,
      "Zau": 3567,
      "ehr": 3568,
      "fur": 3569,
      "gain": 3570,
      "keines": 3571,
      "kiss": 3572,
      "ügen": 3573,
      "tears": 3574,
      "scho": 3575,
      "behand": 3576,
      "soon": 3577,
      "bere": 3578,
      "hnt": 3579,
      "wagen": 3580,
      "kenne": 3581,
      "änglich": 3582,
      "move": 3583,
      "fühlen": 3584,
      "stark": 3585,
      "Fürst": 3586,
      "Bedürf": 3587,
      "Schmerzen": 3588,
      "?)": 3589,
      "Are": 3590,
      "Kennt": 3591,
      "MIO": 3592,
      "Vom": 3593,
      "cer": 3594,
      "fun": 3595,
      "utet": 3596,
      "vol": 3597,
      "erschien": 3598,
      "inal": 3599,
      "genossen": 3600,
      "behaup": 3601,
      "urm": 3602,
      "vorher": 3603,
      "ced": 3604,
      "ily": 3605,
      "faßte": 3606,
      "gerne": 3607,
      "komme": 3608,
      "knows": 3609,
      "lauben": 3610,
      "whose": 3611,
      "scheinlich": 3612,
      "gaben": 3613,
      "sorrow": 3614,
      "Frauenzimmer": 3615,
      "Häus": 3616,
      "Ferne": 3617,
      "Nein": 3618,
      "Tau": 3619,
      "Tri": 3620,
      "Wen": 3621,
      "eat": 3622,
      "por": 3623,
      "öfter": 3624,
      "testen": 3625,
      "onen": 3626,
      "schmer": 3627,
      "urer": 3628,
      "nehm": 3629,
      "kehrt": 3630,
      "Scher": 3631,
      "Schuld": 3632,
      "Ged": 3633,
      "hot": 3634,
      "hlung": 3635,
      "uss": 3636,
      "nachdem": 3637,
      "ppin": 3638,
      "UCKING": 3639,
      "plain": 3640,
      "foot": 3641,
      "Laertes": 3642,
      "pleas": 3643,
      "shot": 3644,
      "wünscht": 3645,
      "Maybe": 3646,
      "Melina": 3647,
      "business": 3648,
      "Gesinnungen": 3649,
      "BUCKING": 3650,
      "One": 3651,
      "Sein": 3652,
      "Wind": 3653,
      "Zur": 3654,
      "pardon": 3655,
      "sig": 3656,
      "ßten": 3657,
      "eral": 3658,
      "sta": 3659,
      "unmittel": 3660,
      "derselben": 3661,
      "almost": 3662,
      "took": 3663,
      "allzu": 3664,
      "gesagt": 3665,
      "überhaupt": 3666,
      "wahren": 3667,
      "eilig": 3668,
      "inks": 3669,
      "würdigen": 3670,
      "müßte": 3671,
      "ated": 3672,
      "Königs": 3673,
      "übrige": 3674,
      "wunderung": 3675,
      "Geistes": 3676,
      "Berge": 3677,
      "erwarten": 3678,
      "Fremden": 3679,
      "natürlich": 3680,
      "UTUS": 3681,
      "BRUTUS": 3682,
      "BUCKINGHAM": 3683,
      "BOL": 3684,
      "BRO": 3685,
      "MIL": 3686,
      "Rücken": 3687,
      "Sind": 3688,
      "Säu": 3689,
      "TRAN": 3690,
      "bri": 3691,
      "kla": 3692,
      "mma": 3693,
      "mil": 3694,
      "pra": 3695,
      "sun": 3696,
      "twi": 3697,
      "öm": 3698,
      "ieht": 3699,
      "stchen": 3700,
      "aul": 3701,
      "derte": 3702,
      "schie": 3703,
      "rel": 3704,
      "verwir": 3705,
      "versam": 3706,
      "ftige": 3707,
      "Verstand": 3708,
      "halte": 3709,
      "pfl": 3710,
      "Inter": 3711,
      "geschlagen": 3712,
      "Wohnung": 3713,
      "Aussicht": 3714,
      "INGBRO": 3715,
      "ESS": 3716,
      "bestimmt": 3717,
      "großes": 3718,
      "Neap": 3719,
      "Gold": 3720,
      "LAU": 3721,
      "drückte": 3722,
      "Gutes": 3723,
      "überzeugt": 3724,
      "soldier": 3725,
      "BOLINGBRO": 3726,
      "TRANIO": 3727,
      "BOLINGBROKE": 3728,
      "Eure": 3729,
      "Gre": 3730,
      "Kam": 3731,
      "NE": 3732,
      "Tat": 3733,
      "bout": 3734,
      "cent": 3735,
      "pft": 3736,
      "uf": 3737,
      "zz": 3738,
      "asse": 3739,
      "itor": 3740,
      "alie": 3741,
      "veränd": 3742,
      "save": 3743,
      "erner": 3744,
      "wirst": 3745,
      "weisen": 3746,
      "anze": 3747,
      "dark": 3748,
      "Arzt": 3749,
      "vost": 3750,
      "ices": 3751,
      "common": 3752,
      "probably": 3753,
      "Orte": 3754,
      "Werke": 3755,
      "herrlichen": 3756,
      "Füßen": 3757,
      "zeichnen": 3758,
      "erzählte": 3759,
      "Give": 3760,
      "Briefe": 3761,
      "Dir": 3762,
      "Tell": 3763,
      "TIS": 3764,
      "Yo": 3765,
      "hil": 3766,
      "hängen": 3767,
      "lde": 3768,
      "ues": 3769,
      "ühen": 3770,
      "esse": 3771,
      "getr": 3772,
      "aunt": 3773,
      "versicher": 3774,
      "allgemeinen": 3775,
      "sichten": 3776,
      "wohin": 3777,
      "deshalb": 3778,
      "dost": 3779,
      "vorzü": 3780,
      "spa": 3781,
      "selbe": 3782,
      "fahrt": 3783,
      "klug": 3784,
      "wenigen": 3785,
      "ifft": 3786,
      "loss": 3787,
      "läch": 3788,
      "conf": 3789,
      "reichte": 3790,
      "gave": 3791,
      "Fels": 3792,
      "Beifall": 3793,
      "Pferd": 3794,
      "shame": 3795,
      "Knabe": 3796,
      "täglich": 3797,
      "Dort": 3798,
      "Grü": 3799,
      "Kut": 3800,
      "Nar": 3801,
      "dum": 3802,
      "günst": 3803,
      "sur": 3804,
      "water": 3805,
      "eres": 3806,
      "unten": 3807,
      "meant": 3808,
      "means": 3809,
      "door": 3810,
      "alsdann": 3811,
      "hler": 3812,
      "fehlt": 3813,
      "hinüber": 3814,
      "heiligen": 3815,
      "Nachricht": 3816,
      "Gegenstand": 3817,
      "Sonnen": 3818,
      "nächsten": 3819,
      "doubt": 3820,
      "knock": 3821,
      "AH": 3822,
      "Gu": 3823,
      "Gär": 3824,
      "Mund": 3825,
      "Must": 3826,
      "Would": 3827,
      "dank": 3828,
      "chtigen": 3829,
      "igkeiten": 3830,
      "Tode": 3831,
      "whom": 3832,
      "reiche": 3833,
      "trag": 3834,
      "Denk": 3835,
      "ätze": 3836,
      "einzelnen": 3837,
      "Eindruck": 3838,
      "ATH": 3839,
      "Bau": 3840,
      "Kalk": 3841,
      "Tische": 3842,
      "cla": 3843,
      "fet": 3844,
      "gas": 3845,
      "pers": 3846,
      "rhy": 3847,
      "sitt": 3848,
      "tlichen": 3849,
      "äste": 3850,
      "ary": 3851,
      "lip": 3852,
      "lock": 3853,
      "sted": 3854,
      "yours": 3855,
      "wort": 3856,
      "tage": 3857,
      "läss": 3858,
      "Spur": 3859,
      "Bette": 3860,
      "Graf": 3861,
      "arms": 3862,
      "Fürsten": 3863,
      "Gipfel": 3864,
      "fremden": 3865,
      "Gemüt": 3866,
      "Verbindung": 3867,
      "Vertrauen": 3868,
      "Entfernung": 3869,
      "Alt": 3870,
      "Gü": 3871,
      "bs": 3872,
      "cou": 3873,
      "fein": 3874,
      "ilien": 3875,
      "mp": 3876,
      "wesen": 3877,
      "eng": 3878,
      "enter": 3879,
      "stol": 3880,
      "steigen": 3881,
      "eid": 3882,
      "schlie": 3883,
      "leug": 3884,
      "verbergen": 3885,
      "heftig": 3886,
      "hafte": 3887,
      "rock": 3888,
      "rochen": 3889,
      "rag": 3890,
      "füllt": 3891,
      "prove": 3892,
      "Natalie": 3893,
      "ANG": 3894,
      "ORD": 3895,
      "Königin": 3896,
      "breath": 3897,
      "jedermann": 3898,
      "allerlei": 3899,
      "quest": 3900,
      "Warum": 3901,
      "Zeich": 3902,
      "CAL": 3903,
      "Himmels": 3904,
      "sonderbar": 3905,
      "Schönheit": 3906,
      "Groß": 3907,
      ".'": 3908,
      "Bö": 3909,
      "Bur": 3910,
      "Hab": 3911,
      "Ise": 3912,
      "Off": 3913,
      "Publik": 3914,
      "Spe": 3915,
      "Ti": 3916,
      "Vern": 3917,
      "glichen": 3918,
      "iche": 3919,
      "recken": 3920,
      "versprach": 3921,
      "vergebens": 3922,
      "manchen": 3923,
      "ments": 3924,
      "weep": 3925,
      "Schein": 3926,
      "seln": 3927,
      "Erd": 3928,
      "leise": 3929,
      "geschn": 3930,
      "inside": 3931,
      "betro": 3932,
      "Reisen": 3933,
      "ELO": 3934,
      "gesehn": 3935,
      "Hülfe": 3936,
      "gentleman": 3937,
      "Welch": 3938,
      "hoffte": 3939,
      "Bilder": 3940,
      "Spazier": 3941,
      "Ursache": 3942,
      "ANGELO": 3943,
      "Isegrim": 3944,
      "CU": 3945,
      "Con": 3946,
      "Com": 3947,
      "Did": 3948,
      "Flä": 3949,
      "Hor": 3950,
      "Min": 3951,
      "Stell": 3952,
      "Wand": 3953,
      "Wald": 3954,
      "cousin": 3955,
      "dri": 3956,
      "ören": 3957,
      "ence": 3958,
      "chick": 3959,
      "orgt": 3960,
      "soviel": 3961,
      "igten": 3962,
      "happen": 3963,
      "sad": 3964,
      "lives": 3965,
      "wonder": 3966,
      "wiesen": 3967,
      "entbe": 3968,
      "reift": 3969,
      "Dieses": 3970,
      "gering": 3971,
      "willkommen": 3972,
      "oney": 3973,
      "ARINA": 3974,
      "schönste": 3975,
      "Italien": 3976,
      "Abbe": 3977,
      "gracious": 3978,
      "Tafel": 3979,
      "Gottes": 3980,
      "wußt": 3981,
      "bekannten": 3982,
      "arence": 3983,
      "hoffe": 3984,
      "wachsen": 3985,
      "Clarence": 3986,
      "Blatt": 3987,
      "Ide": 3988,
      "Kap": 3989,
      "KATH": 3990,
      "Lam": 3991,
      "Ob": 3992,
      "Ohr": 3993,
      "ewi": 3994,
      "gliche": 3995,
      "hom": 3996,
      "hum": 3997,
      "häu": 3998,
      "hither": 3999,
      "thro": 4000,
      "eing": 4001,
      "aun": 4002,
      "zufä": 4003,
      "rechte": 4004,
      "begrü": 4005,
      "neck": 4006,
      "wovon": 4007,
      "ween": 4008,
      "steh": 4009,
      "Schloß": 4010,
      "Verlegenheit": 4011,
      "worauf": 4012,
      "freute": 4013,
      "geboren": 4014,
      "Marci": 4015,
      "hret": 4016,
      "dance": 4017,
      "richtet": 4018,
      "Gestalten": 4019,
      "könnten": 4020,
      "Jeder": 4021,
      "KATHARINA": 4022,
      "Händen": 4023,
      "Szen": 4024,
      "mes": 4025,
      "pie": 4026,
      "ötz": 4027,
      "erinner": 4028,
      "chs": 4029,
      "außen": 4030,
      "org": 4031,
      "reven": 4032,
      "sowohl": 4033,
      "vernehmen": 4034,
      "haften": 4035,
      "womit": 4036,
      "umt": 4037,
      "tic": 4038,
      "weis": 4039,
      "eds": 4040,
      "work": 4041,
      "leiten": 4042,
      "getting": 4043,
      "zeug": 4044,
      "kleiner": 4045,
      "comfort": 4046,
      "Rolle": 4047,
      "retten": 4048,
      "wahrscheinlich": 4049,
      "verborgen": 4050,
      "drop": 4051,
      "spielen": 4052,
      "Reineken": 4053,
      "ämmer": 4054,
      "Paar": 4055,
      "bewegt": 4056,
      "Marcius": 4057,
      "Flei": 4058,
      "Geister": 4059,
      "Lauf": 4060,
      "Mag": 4061,
      "Temp": 4062,
      "city": 4063,
      "grief": 4064,
      "hh": 4065,
      "laufen": 4066,
      "sw": 4067,
      "touch": 4068,
      "Übel": 4069,
      "erhö": 4070,
      "stü": 4071,
      "stab": 4072,
      "anmut": 4073,
      "gelieb": 4074,
      "unken": 4075,
      "zubringen": 4076,
      "elnd": 4077,
      "iment": 4078,
      "ummer": 4079,
      "doing": 4080,
      "wack": 4081,
      "füll": 4082,
      "führung": 4083,
      "artig": 4084,
      "gelten": 4085,
      "Archite": 4086,
      "quit": 4087,
      "fortune": 4088,
      "brochen": 4089,
      "folgte": 4090,
      "didn": 4091,
      "Nebel": 4092,
      "Grab": 4093,
      "motherfuck": 4094,
      "holte": 4095,
      "lebendig": 4096,
      "Erscheinung": 4097,
      "Erinnerung": 4098,
      "Neapel": 4099,
      "Bitch": 4100,
      "Mö": 4101,
      "Que": 4102,
      "Uhr": 4103,
      "Wä": 4104,
      "burn": 4105,
      "cts": 4106,
      "fan": 4107,
      "iegen": 4108,
      "ndet": 4109,
      "deck": 4110,
      "already": 4111,
      "warten": 4112,
      "lack": 4113,
      "Sold": 4114,
      "worin": 4115,
      "gren": 4116,
      "gebaut": 4117,
      "mußten": 4118,
      "jenige": 4119,
      "Lieben": 4120,
      "häus": 4121,
      "bloß": 4122,
      "ESCAL": 4123,
      "danger": 4124,
      "scream": 4125,
      "herrlich": 4126,
      "griffen": 4127,
      "kümmer": 4128,
      "liebens": 4129,
      "arbeitet": 4130,
      "dürfen": 4131,
      "Angelo": 4132,
      "Betrachtungen": 4133,
      "ESCALUS": 4134,
      "Frage": 4135,
      "Jetzt": 4136,
      "Kor": 4137,
      "Kno": 4138,
      "Tie": 4139,
      "Wissen": 4140,
      "jün": 4141,
      "phe": 4142,
      "pher": 4143,
      "rings": 4144,
      "van": 4145,
      "zau": 4146,
      "chance": 4147,
      "stick": 4148,
      "gestehen": 4149,
      "rew": 4150,
      "deep": 4151,
      "ures": 4152,
      "nommen": 4153,
      "bereiten": 4154,
      "wid": 4155,
      "Schul": 4156,
      "Schatten": 4157,
      "annten": 4158,
      "maid": 4159,
      "Versuch": 4160,
      "reib": 4161,
      "edle": 4162,
      "faith": 4163,
      "Beste": 4164,
      "Ant": 4165,
      "Leb": 4166,
      "ätte": 4167,
      "heißt": 4168,
      "treffen": 4169,
      "Reihe": 4170,
      "Felix": 4171,
      "entfernt": 4172,
      "country": 4173,
      "stieg": 4174,
      "royal": 4175,
      "Bald": 4176,
      "Ham": 4177,
      "Hath": 4178,
      "Ober": 4179,
      "kon": 4180,
      "knü": 4181,
      "künst": 4182,
      "sil": 4183,
      "uen": 4184,
      "ante": 4185,
      "itze": 4186,
      "heut": 4187,
      "nobody": 4188,
      "hair": 4189,
      "log": 4190,
      "wozu": 4191,
      "ette": 4192,
      "Gemahl": 4193,
      "gesp": 4194,
      "Anteil": 4195,
      "ions": 4196,
      "Geschöpf": 4197,
      "While": 4198,
      "Zusammen": 4199,
      "gemäß": 4200,
      "wünsche": 4201,
      "deln": 4202,
      "verbunden": 4203,
      "Herzens": 4204,
      "party": 4205,
      "erwartet": 4206,
      "Empfindungen": 4207,
      "trieb": 4208,
      "Helden": 4209,
      "kids": 4210,
      "Glieder": 4211,
      "AU": 4212,
      "Cap": 4213,
      "DUCH": 4214,
      "Mitt": 4215,
      "Murder": 4216,
      "Mauern": 4217,
      "Sen": 4218,
      "Som": 4219,
      "Sup": 4220,
      "ahe": 4221,
      "close": 4222,
      "dor": 4223,
      "nes": 4224,
      "osen": 4225,
      "prom": 4226,
      "ugend": 4227,
      "zel": 4228,
      "öh": 4229,
      "üs": 4230,
      "iet": 4231,
      "gewahr": 4232,
      "sea": 4233,
      "bemü": 4234,
      "bedenk": 4235,
      "vergnü": 4236,
      "neten": 4237,
      "wilt": 4238,
      "mente": 4239,
      "reig": 4240,
      "heißen": 4241,
      "posed": 4242,
      "jenigen": 4243,
      "says": 4244,
      "Mitte": 4245,
      "Zuschau": 4246,
      "bitter": 4247,
      "year": 4248,
      "grave": 4249,
      "Duke": 4250,
      "mannig": 4251,
      "folgt": 4252,
      "Laßt": 4253,
      "everybody": 4254,
      "tryna": 4255,
      "ROS": 4256,
      "shake": 4257,
      "trägt": 4258,
      "Fremde": 4259,
      "Betrachtung": 4260,
      "Dorf": 4261,
      "verdrießlich": 4262,
      "sorgfä": 4263,
      "DUCHESS": 4264,
      "Apo": 4265,
      "More": 4266,
      "Ra": 4267,
      "Ster": 4268,
      "dunk": 4269,
      "lar": 4270,
      "miß": 4271,
      "ped": 4272,
      "past": 4273,
      "sin": 4274,
      "uge": 4275,
      "zieren": 4276,
      "zunehmen": 4277,
      "öst": 4278,
      "chan": 4279,
      "steigt": 4280,
      "esh": 4281,
      "gele": 4282,
      "onne": 4283,
      "ders": 4284,
      "leer": 4285,
      "verständ": 4286,
      "roll": 4287,
      "wound": 4288,
      "umber": 4289,
      "hob": 4290,
      "god": 4291,
      "Verdr": 4292,
      "fenth": 4293,
      "Auft": 4294,
      "Aufenth": 4295,
      "artier": 4296,
      "proud": 4297,
      "Also": 4298,
      "Freundes": 4299,
      "someone": 4300,
      "zweiten": 4301,
      "Umstände": 4302,
      "wunderbar": 4303,
      "schluß": 4304,
      "Stellen": 4305,
      "Saal": 4306,
      "indeed": 4307,
      "Ottiliens": 4308,
      "verschiedenen": 4309,
      "Papier": 4310,
      "Lotte": 4311,
      "Lotten": 4312,
      "Voll": 4313,
      "versicherte": 4314,
      "Kleid": 4315,
      "Til": 4316,
      "blau": 4317,
      "fam": 4318,
      "fill": 4319,
      "four": 4320,
      "gnä": 4321,
      "hüb": 4322,
      "huh": 4323,
      "kick": 4324,
      "lein": 4325,
      "zten": 4326,
      "ält": 4327,
      "gemeine": 4328,
      "schlag": 4329,
      "road": 4330,
      "weichen": 4331,
      "Schm": 4332,
      "holy": 4333,
      "liege": 4334,
      "vorwärts": 4335,
      "nacht": 4336,
      "Gesang": 4337,
      "fün": 4338,
      "gewonnen": 4339,
      "freie": 4340,
      "volle": 4341,
      "Zeitlang": 4342,
      "fluß": 4343,
      "Hauses": 4344,
      "fried": 4345,
      "entfernen": 4346,
      "Kreise": 4347,
      "Ganze": 4348,
      "verschiedene": 4349,
      "arbeiten": 4350,
      "lebhafte": 4351,
      "erklären": 4352,
      "villain": 4353,
      "Clo": 4354,
      "Jammer": 4355,
      "Pfl": 4356,
      "Wink": 4357,
      "cted": 4358,
      "ding": 4359,
      "lin": 4360,
      "vent": 4361,
      "vant": 4362,
      "wal": 4363,
      "öpfe": 4364,
      "übt": 4365,
      "anted": 4366,
      "gelang": 4367,
      "llo": 4368,
      "schm": 4369,
      "devil": 4370,
      "bee": 4371,
      "isser": 4372,
      "daselbst": 4373,
      "rain": 4374,
      "Gewohn": 4375,
      "werke": 4376,
      "unsrer": 4377,
      "spo": 4378,
      "ilt": 4379,
      "uppen": 4380,
      "Anmut": 4381,
      "Anfang": 4382,
      "aint": 4383,
      "wenige": 4384,
      "Arbei": 4385,
      "prä": 4386,
      "möchten": 4387,
      "schönes": 4388,
      "Entz": 4389,
      "laut": 4390,
      "Spei": 4391,
      "binden": 4392,
      "glücklichen": 4393,
      "gutes": 4394,
      "brea": 4395,
      "CAMIL": 4396,
      "crack": 4397,
      "bull": 4398,
      "Stücke": 4399,
      "schlecht": 4400,
      "leuchtet": 4401,
      "nigga": 4402,
      "CAMILLO": 4403,
      "Res": 4404,
      "bow": 4405,
      "dün": 4406,
      "fft": 4407,
      "furcht": 4408,
      "hten": 4409,
      "hängt": 4410,
      "hurt": 4411,
      "ised": 4412,
      "lon": 4413,
      "money": 4414,
      "oth": 4415,
      "rant": 4416,
      "raten": 4417,
      "erman": 4418,
      "zustellen": 4419,
      "bele": 4420,
      "along": 4421,
      "verstehen": 4422,
      "verzei": 4423,
      "verdient": 4424,
      "berg": 4425,
      "nehme": 4426,
      "sag": 4427,
      "umgeben": 4428,
      "Gemä": 4429,
      "Sta": 4430,
      "höre": 4431,
      "welcome": 4432,
      "rauen": 4433,
      "Weiber": 4434,
      "Manne": 4435,
      "looking": 4436,
      "everything": 4437,
      "herrliche": 4438,
      "dienst": 4439,
      "Provost": 4440,
      "beinahe": 4441,
      "empfangen": 4442,
      "Paris": 4443,
      "begegnen": 4444,
      "jemals": 4445,
      "treiben": 4446,
      "Friedr": 4447,
      "künftig": 4448,
      "leidenschaft": 4449,
      "Flügel": 4450,
      "Kästchen": 4451,
      "unmittelbar": 4452,
      "Bem": 4453,
      "Dam": 4454,
      "Ehre": 4455,
      "Fort": 4456,
      "Gna": 4457,
      "OP": 4458,
      "Samm": 4459,
      "TEN": 4460,
      "Wär": 4461,
      "cri": 4462,
      "minde": 4463,
      "pay": 4464,
      "reinen": 4465,
      "rück": 4466,
      "enken": 4467,
      "ergriff": 4468,
      "theit": 4469,
      "aught": 4470,
      "genannt": 4471,
      "behalten": 4472,
      "beob": 4473,
      "vereign": 4474,
      "lichkeiten": 4475,
      "top": 4476,
      "warm": 4477,
      "ungs": 4478,
      "women": 4479,
      "wies": 4480,
      "deswegen": 4481,
      "dog": 4482,
      "hinweg": 4483,
      "geraten": 4484,
      "Best": 4485,
      "Bekannt": 4486,
      "welch": 4487,
      "posit": 4488,
      "prin": 4489,
      "isches": 4490,
      "Handwerk": 4491,
      "Marshall": 4492,
      "frucht": 4493,
      "lebte": 4494,
      "wants": 4495,
      "älter": 4496,
      "thoughts": 4497,
      "trefflich": 4498,
      "false": 4499,
      "drückt": 4500,
      "gegenwärtigen": 4501,
      "Gebirge": 4502,
      "honest": 4503,
      "HORTEN": 4504,
      "schmerz": 4505,
      "HORTENS": 4506,
      "Blei": 4507,
      "EY": 4508,
      "FR": 4509,
      "Furcht": 4510,
      "Gren": 4511,
      "IAR": 4512,
      "Kaum": 4513,
      "Never": 4514,
      "Thal": 4515,
      "Upon": 4516,
      "bigen": 4517,
      "ellen": 4518,
      "ient": 4519,
      "kunst": 4520,
      "line": 4521,
      "sign": 4522,
      "erb": 4523,
      "unmöglich": 4524,
      "reten": 4525,
      "because": 4526,
      "beza": 4527,
      "sovereign": 4528,
      "verze": 4529,
      "hebt": 4530,
      "hend": 4531,
      "wirkt": 4532,
      "Schaden": 4533,
      "forget": 4534,
      "annte": 4535,
      "fehlte": 4536,
      "Städ": 4537,
      "Verwir": 4538,
      "nachzu": 4539,
      "reis": 4540,
      "anzös": 4541,
      "gerü": 4542,
      "pflegt": 4543,
      "innern": 4544,
      "point": 4545,
      "ahm": 4546,
      "thinks": 4547,
      "bestimm": 4548,
      "französ": 4549,
      "feeling": 4550,
      "Nichts": 4551,
      "streben": 4552,
      "äußer": 4553,
      "horse": 4554,
      "froh": 4555,
      "zerstre": 4556,
      "erinnern": 4557,
      "Kräfte": 4558,
      "schmeich": 4559,
      "Geschlecht": 4560,
      "school": 4561,
      "Aufenthalt": 4562,
      "HORTENSIO": 4563,
      "FRIAR": 4564,
      ",'": 4565,
      "Bürger": 4566,
      "Kell": 4567,
      "PTIS": 4568,
      "Rel": 4569,
      "Trü": 4570,
      "col": 4571,
      "flei": 4572,
      "haus": 4573,
      "hmt": 4574,
      "ior": 4575,
      "ium": 4576,
      "rig": 4577,
      "sat": 4578,
      "sister": 4579,
      "virt": 4580,
      "entr": 4581,
      "erwä": 4582,
      "anger": 4583,
      "eien": 4584,
      "schla": 4585,
      "beweg": 4586,
      "versp": 4587,
      "verlangte": 4588,
      "sichern": 4589,
      "weiten": 4590,
      "riß": 4591,
      "worse": 4592,
      "ours": 4593,
      "fürchten": 4594,
      "kannst": 4595,
      "seite": 4596,
      "Vorstellung": 4597,
      "Third": 4598,
      "loved": 4599,
      "Ausdruck": 4600,
      "Roman": 4601,
      "Lager": 4602,
      "ruhigen": 4603,
      "wenty": 4604,
      "children": 4605,
      "BAPTIS": 4606,
      "besuchen": 4607,
      "getroffen": 4608,
      "England": 4609,
      "tätig": 4610,
      "verlieren": 4611,
      "Liebhaber": 4612,
      "vorzüglich": 4613,
      "üssel": 4614,
      "BAPTISTA": 4615,
      "AUT": 4616,
      "Band": 4617,
      "CUS": 4618,
      "COM": 4619,
      "Euer": 4620,
      "Gent": 4621,
      "Ly": 4622,
      "Put": 4623,
      "Vie": 4624,
      "YCUS": 4625,
      "Zwischen": 4626,
      "ahn": 4627,
      "eas": 4628,
      "ial": 4629,
      "kä": 4630,
      "links": 4631,
      "pick": 4632,
      "pity": 4633,
      "tter": 4634,
      "stor": 4635,
      "arme": 4636,
      "asen": 4637,
      "ität": 4638,
      "bewegen": 4639,
      "roh": 4640,
      "lischen": 4641,
      "loves": 4642,
      "eitung": 4643,
      "wobei": 4644,
      "werfen": 4645,
      "spät": 4646,
      "später": 4647,
      "entz": 4648,
      "Verlangen": 4649,
      "reite": 4650,
      "reitet": 4651,
      "shalt": 4652,
      "wake": 4653,
      "worfen": 4654,
      "willst": 4655,
      "füllen": 4656,
      "geschieht": 4657,
      "vieler": 4658,
      "press": 4659,
      "Rechte": 4660,
      "known": 4661,
      "Albert": 4662,
      "konnt": 4663,
      "Geschä": 4664,
      "contro": 4665,
      "Besuch": 4666,
      "mächtig": 4667,
      "Hailie": 4668,
      "glaube": 4669,
      "erstenmal": 4670,
      "unkte": 4671,
      "angenehme": 4672,
      "Teilnahme": 4673,
      "OLYCUS": 4674,
      "winden": 4675,
      "öffent": 4676,
      "trefflichen": 4677,
      "begegnet": 4678,
      "enthalten": 4679,
      "Clown": 4680,
      "AUTOLYCUS": 4681,
      "COMINIUS": 4682,
      "Kate": 4683,
      "Macht": 4684,
      "Ven": 4685,
      "Winter": 4686,
      "dre": 4687,
      "ek": 4688,
      "ears": 4689,
      "grie": 4690,
      "gue": 4691,
      "lit": 4692,
      "mill": 4693,
      "obe": 4694,
      "sight": 4695,
      "tchen": 4696,
      "erscheint": 4697,
      "geduld": 4698,
      "getrieben": 4699,
      "arden": 4700,
      "tender": 4701,
      "utig": 4702,
      "steckt": 4703,
      "wasn": 4704,
      "werdet": 4705,
      "ils": 4706,
      "reizen": 4707,
      "within": 4708,
      "brach": 4709,
      "wahre": 4710,
      "worn": 4711,
      "worth": 4712,
      "Einen": 4713,
      "himm": 4714,
      "wendet": 4715,
      "ARENCE": 4716,
      "command": 4717,
      "beschrän": 4718,
      "Umgeb": 4719,
      "langsam": 4720,
      "betrachten": 4721,
      "empfinden": 4722,
      "pair": 4723,
      "richtig": 4724,
      "Kape": 4725,
      "Sorg": 4726,
      "Ganzen": 4727,
      "hieß": 4728,
      "begleitet": 4729,
      "durfte": 4730,
      "CLARENCE": 4731,
      "Franzosen": 4732,
      "Hol": 4733,
      "Kammer": 4734,
      "Mil": 4735,
      "Mär": 4736,
      "cei": 4737,
      "fi": 4738,
      "ike": 4739,
      "kauf": 4740,
      "opp": 4741,
      "sern": 4742,
      "öße": 4743,
      "eingesch": 4744,
      "eiste": 4745,
      "derben": 4746,
      "genöt": 4747,
      "reat": 4748,
      "dens": 4749,
      "bew": 4750,
      "bege": 4751,
      "beque": 4752,
      "ished": 4753,
      "verwei": 4754,
      "tom": 4755,
      "rote": 4756,
      "utzen": 4757,
      "rapp": 4758,
      "ettet": 4759,
      "Schwei": 4760,
      "hood": 4761,
      "merken": 4762,
      "tisch": 4763,
      "Verwunderung": 4764,
      "bracht": 4765,
      "drang": 4766,
      "gewisser": 4767,
      "grunde": 4768,
      "setzten": 4769,
      "voice": 4770,
      "saying": 4771,
      "Lied": 4772,
      "begann": 4773,
      "Abschied": 4774,
      "Nation": 4775,
      "heimlich": 4776,
      "acc": 4777,
      "Abends": 4778,
      "Kais": 4779,
      "verlor": 4780,
      "zahl": 4781,
      "Talent": 4782,
      "seltsam": 4783,
      "Diener": 4784,
      "course": 4785,
      "Halb": 4786,
      "geschickt": 4787,
      "antwortete": 4788,
      "Zweck": 4789,
      "learn": 4790,
      "Bedürfnis": 4791,
      "erinnerte": 4792,
      "Tempel": 4793,
      "Amer": 4794,
      "BEN": 4795,
      "Brä": 4796,
      "Grä": 4797,
      "Ker": 4798,
      "Klo": 4799,
      "NOR": 4800,
      "Rü": 4801,
      "Rau": 4802,
      "Such": 4803,
      "Sign": 4804,
      "batt": 4805,
      "gun": 4806,
      "göt": 4807,
      "nam": 4808,
      "uff": 4809,
      "befand": 4810,
      "nothin": 4811,
      "kehr": 4812,
      "list": 4813,
      "lips": 4814,
      "Schu": 4815,
      "Vermögen": 4816,
      "nachher": 4817,
      "leitet": 4818,
      "nahmen": 4819,
      "gewendet": 4820,
      "innt": 4821,
      "barkeit": 4822,
      "Vorsatz": 4823,
      "hierher": 4824,
      "ica": 4825,
      "traf": 4826,
      "nämlich": 4827,
      "bles": 4828,
      "Geburt": 4829,
      "Maß": 4830,
      "six": 4831,
      "front": 4832,
      "größer": 4833,
      "Eduarden": 4834,
      "Klein": 4835,
      "nature": 4836,
      "Shit": 4837,
      "bedeutenden": 4838,
      "Treppe": 4839,
      "Therese": 4840,
      "Würde": 4841,
      "Wünsche": 4842,
      "VOLIO": 4843,
      "Schlaf": 4844,
      "Blätter": 4845,
      "Gentle": 4846,
      "BENVOLIO": 4847,
      "Bis": 4848,
      "Cam": 4849,
      "Gang": 4850,
      "MER": 4851,
      "PA": 4852,
      "PROS": 4853,
      "pet": 4854,
      "pret": 4855,
      "ring": 4856,
      "wunden": 4857,
      "erquick": 4858,
      "anten": 4859,
      "gelangen": 4860,
      "veran": 4861,
      "beruh": 4862,
      "demselben": 4863,
      "Gewiß": 4864,
      "deser": 4865,
      "hole": 4866,
      "lad": 4867,
      "Bemerk": 4868,
      "willig": 4869,
      "ady": 4870,
      "Leicht": 4871,
      "wendete": 4872,
      "offer": 4873,
      "bitte": 4874,
      "sul": 4875,
      "tiefer": 4876,
      "Führer": 4877,
      "Bedien": 4878,
      "Straßen": 4879,
      "lustig": 4880,
      "Streit": 4881,
      "UMIO": 4882,
      "Dienst": 4883,
      "GRUMIO": 4884,
      "court": 4885,
      "tonight": 4886,
      "kleidet": 4887,
      "abends": 4888,
      "Schnee": 4889,
      "subje": 4890,
      "PERO": 4891,
      "geschnitten": 4892,
      "pherd": 4893,
      "Zuschauer": 4894,
      "Friedrich": 4895,
      "genötigt": 4896,
      "PROSPERO": 4897,
      "Guten": 4898,
      "Gunst": 4899,
      "Had": 4900,
      "Ihm": 4901,
      "Por": 4902,
      "Wall": 4903,
      "Zerst": 4904,
      "dacht": 4905,
      "eure": 4906,
      "fie": 4907,
      "längst": 4908,
      "nern": 4909,
      "pal": 4910,
      "pus": 4911,
      "pill": 4912,
      "einiges": 4913,
      "dergestalt": 4914,
      "deli": 4915,
      "verlangt": 4916,
      "listen": 4917,
      "trust": 4918,
      "spot": 4919,
      "main": 4920,
      "Andenken": 4921,
      "reißen": 4922,
      "shut": 4923,
      "Beha": 4924,
      "geschah": 4925,
      "ruhe": 4926,
      "Wird": 4927,
      "angekommen": 4928,
      "Gegenden": 4929,
      "Wahn": 4930,
      "leichter": 4931,
      "Entschluß": 4932,
      "höchste": 4933,
      "sorry": 4934,
      "flow": 4935,
      "heavy": 4936,
      "Komm": 4937,
      "bedeutend": 4938,
      "wechselseit": 4939,
      "Hoch": 4940,
      "Traum": 4941,
      "Masse": 4942,
      "vernün": 4943,
      "junger": 4944,
      "Abenteuer": 4945,
      "Säulen": 4946,
      "CUTIO": 4947,
      "Murderer": 4948,
      "Verdruß": 4949,
      "MERCUTIO": 4950,
      "Faust": 4951,
      "Gri": 4952,
      "Last": 4953,
      "Part": 4954,
      "Tas": 4955,
      "Thin": 4956,
      "Were": 4957,
      "evil": 4958,
      "lf": 4959,
      "lü": 4960,
      "sword": 4961,
      "twenty": 4962,
      "instru": 4963,
      "orden": 4964,
      "ungefähr": 4965,
      "schwie": 4966,
      "second": 4967,
      "deuten": 4968,
      "least": 4969,
      "dafür": 4970,
      "ham": 4971,
      "lif": 4972,
      "Schn": 4973,
      "traten": 4974,
      "uchten": 4975,
      "fell": 4976,
      "gesetz": 4977,
      "madam": 4978,
      "goin": 4979,
      "gods": 4980,
      "breit": 4981,
      "wahrt": 4982,
      "riester": 4983,
      "gewand": 4984,
      "tags": 4985,
      "ruhen": 4986,
      "Dame": 4987,
      "fucked": 4988,
      "möge": 4989,
      "wouldn": 4990,
      "bloody": 4991,
      "meln": 4992,
      "voller": 4993,
      "Werther": 4994,
      "bedür": 4995,
      "anything": 4996,
      "richtete": 4997,
      "shoot": 4998,
      "rasch": 4999,
      "Servant": 5000,
      "Should": 5001,
      "Tepp": 5002,
      "übrigens": 5003,
      "stud": 5004,
      "draw": 5005,
      "LUCENTIO": 5006,
      "Palast": 5007,
      "gainst": 5008,
      "Kenntnis": 5009,
      "schließt": 5010,
      "sorgfältig": 5011,
      "Ad": 5012,
      "Hinter": 5013,
      "ID": 5014,
      "POM": 5015,
      "Sil": 5016,
      "bor": 5017,
      "dom": 5018,
      "jor": 5019,
      "ran": 5020,
      "uern": 5021,
      "üm": 5022,
      "anti": 5023,
      "either": 5024,
      "irre": 5025,
      "verkü": 5026,
      "vernahm": 5027,
      "verschaffen": 5028,
      "hem": 5029,
      "unglaub": 5030,
      "loben": 5031,
      "step": 5032,
      "Gewand": 5033,
      "Steine": 5034,
      "hinten": 5035,
      "gets": 5036,
      "drängen": 5037,
      "pflegte": 5038,
      "gegenüber": 5039,
      "Zufrieden": 5040,
      "licherweise": 5041,
      "bitches": 5042,
      "Besond": 5043,
      "Umständen": 5044,
      "trying": 5045,
      "kühn": 5046,
      "strange": 5047,
      "zeichnete": 5048,
      "Meinung": 5049,
      "floor": 5050,
      "Zustande": 5051,
      "LAND": 5052,
      "Niemand": 5053,
      "Farben": 5054,
      "mistress": 5055,
      "spirit": 5056,
      "erwiderte": 5057,
      "Verwirrung": 5058,
      "POMP": 5059,
      "Dich": 5060,
      "Fle": 5061,
      "Gal": 5062,
      "Gäste": 5063,
      "Mu": 5064,
      "Mer": 5065,
      "Pat": 5066,
      "bag": 5067,
      "case": 5068,
      "est": 5069,
      "edel": 5070,
      "foul": 5071,
      "jump": 5072,
      "mama": 5073,
      "erlau": 5074,
      "undern": 5075,
      "ating": 5076,
      "befest": 5077,
      "behind": 5078,
      "vermag": 5079,
      "urs": 5080,
      "urz": 5081,
      "having": 5082,
      "samer": 5083,
      "stets": 5084,
      "auseinander": 5085,
      "Scho": 5086,
      "Verg": 5087,
      "Veränder": 5088,
      "short": 5089,
      "endung": 5090,
      "cover": 5091,
      "Unheil": 5092,
      "drungen": 5093,
      "gewün": 5094,
      "Dasein": 5095,
      "ards": 5096,
      "bye": 5097,
      "Geschmack": 5098,
      "Spiegel": 5099,
      "Zufall": 5100,
      "Besit": 5101,
      "between": 5102,
      "ANT": 5103,
      "ferner": 5104,
      "fährt": 5105,
      "scar": 5106,
      "Vaterland": 5107,
      "Frank": 5108,
      "bekannte": 5109,
      "ULINA": 5110,
      "Stube": 5111,
      "träglich": 5112,
      "Leib": 5113,
      "Wolf": 5114,
      "lebhaften": 5115,
      "Nachbarschaft": 5116,
      "Kriegs": 5117,
      "billig": 5118,
      "Erzählung": 5119,
      "beseech": 5120,
      "Publikum": 5121,
      "Gewohnheit": 5122,
      "Arbeiten": 5123,
      "PAULINA": 5124,
      ".\"": 5125,
      "Dichter": 5126,
      "Girl": 5127,
      "Kün": 5128,
      "Rö": 5129,
      "Till": 5130,
      "XEN": 5131,
      "bir": 5132,
      "dauer": 5133,
      "felt": 5134,
      "hist": 5135,
      "käm": 5136,
      "oath": 5137,
      "gedenken": 5138,
      "order": 5139,
      "uncle": 5140,
      "schte": 5141,
      "lead": 5142,
      "het": 5143,
      "near": 5144,
      "neuer": 5145,
      "imb": 5146,
      "aufgenommen": 5147,
      "wild": 5148,
      "ram": 5149,
      "losen": 5150,
      "wers": 5151,
      "majest": 5152,
      "beisammen": 5153,
      "Gesetz": 5154,
      "unterbrochen": 5155,
      "check": 5156,
      "drink": 5157,
      "geschwind": 5158,
      "post": 5159,
      "morning": 5160,
      "quar": 5161,
      "Though": 5162,
      "Wohlt": 5163,
      "traitor": 5164,
      "Gebär": 5165,
      "ationen": 5166,
      "Bett": 5167,
      "suit": 5168,
      "haftigkeit": 5169,
      "everyone": 5170,
      "mark": 5171,
      "married": 5172,
      "könnt": 5173,
      "Lippen": 5174,
      "musste": 5175,
      "buy": 5176,
      "Serving": 5177,
      "Fällen": 5178,
      "vertraut": 5179,
      "Sicher": 5180,
      "Zweifel": 5181,
      "bewegte": 5182,
      "schätzen": 5183,
      "GREMIO": 5184,
      "Aurelie": 5185,
      "Tyb": 5186,
      "verändert": 5187,
      "claim": 5188,
      "Stellung": 5189,
      "POMPEY": 5190,
      "Bär": 5191,
      "BER": 5192,
      "Cor": 5193,
      "Ei": 5194,
      "Eis": 5195,
      "Gatt": 5196,
      "IXEN": 5197,
      "Kindes": 5198,
      "Lassen": 5199,
      "NIA": 5200,
      "POL": 5201,
      "Sel": 5202,
      "Teile": 5203,
      "Viel": 5204,
      "dle": 5205,
      "nö": 5206,
      "ror": 5207,
      "sau": 5208,
      "engen": 5209,
      "stom": 5210,
      "rede": 5211,
      "regel": 5212,
      "igste": 5213,
      "herüber": 5214,
      "woo": 5215,
      "tio": 5216,
      "aby": 5217,
      "abgesch": 5218,
      "rite": 5219,
      "gerettet": 5220,
      "fuhren": 5221,
      "wiederholt": 5222,
      "utete": 5223,
      "bound": 5224,
      "bold": 5225,
      "gefangen": 5226,
      "lätz": 5227,
      "begri": 5228,
      "traurigen": 5229,
      "retch": 5230,
      "Grafen": 5231,
      "gedachte": 5232,
      "Platze": 5233,
      "äußern": 5234,
      "Schritte": 5235,
      "Morgens": 5236,
      "geistlichen": 5237,
      "Indem": 5238,
      "UMNIA": 5239,
      "erblickte": 5240,
      "Trost": 5241,
      "purpose": 5242,
      "Braun": 5243,
      "VOLUMNIA": 5244,
      "smoke": 5245,
      "Interesse": 5246,
      "Szene": 5247,
      "position": 5248,
      "Bräutig": 5249,
      "Zufriedenheit": 5250,
      "Tybalt": 5251,
      "IXENES": 5252,
      "POLIXENES": 5253,
      "Back": 5254,
      "Clau": 5255,
      "Fragen": 5256,
      "Finger": 5257,
      "GON": 5258,
      "Glauben": 5259,
      "Priester": 5260,
      "Zwar": 5261,
      "cti": 5262,
      "frau": 5263,
      "farewell": 5264,
      "hu": 5265,
      "hmer": 5266,
      "og": 5267,
      "tliche": 5268,
      "erhielt": 5269,
      "stir": 5270,
      "deal": 5271,
      "sowie": 5272,
      "verein": 5273,
      "acher": 5274,
      "Schau": 5275,
      "Schar": 5276,
      "uchte": 5277,
      "mercy": 5278,
      "Stü": 5279,
      "Stre": 5280,
      "Verzei": 5281,
      "hingegen": 5282,
      "durchs": 5283,
      "gert": 5284,
      "brought": 5285,
      "grün": 5286,
      "gelern": 5287,
      "darum": 5288,
      "geschm": 5289,
      "pee": 5290,
      "heitern": 5291,
      "ants": 5292,
      "gebir": 5293,
      "gebunden": 5294,
      "book": 5295,
      "Heft": 5296,
      "laughter": 5297,
      "INGS": 5298,
      "stehenden": 5299,
      "marry": 5300,
      "einzeln": 5301,
      "angenehmen": 5302,
      "essenger": 5303,
      "ziert": 5304,
      "Zeug": 5305,
      "völl": 5306,
      "Therefore": 5307,
      "Beding": 5308,
      "Beschäft": 5309,
      "empor": 5310,
      "braucht": 5311,
      "Freilich": 5312,
      "stiegen": 5313,
      "ergötz": 5314,
      "HAST": 5315,
      "record": 5316,
      "sämtlichen": 5317,
      "Anstalt": 5318,
      "centio": 5319,
      "Figuren": 5320,
      "Häuser": 5321,
      "hilft": 5322,
      "Bemü": 5323,
      "Bekanntschaft": 5324,
      "Kloster": 5325,
      "Servingman": 5326,
      "Bräutigam": 5327,
      "HASTINGS": 5328,
      "After": 5329,
      "Bol": 5330,
      "Bäume": 5331,
      "Dis": 5332,
      "Kup": 5333,
      "Pray": 5334,
      "Rein": 5335,
      "RENCE": 5336,
      "Tier": 5337,
      "dun": 5338,
      "dare": 5339,
      "ilo": 5340,
      "misch": 5341,
      "chtige": 5342,
      "essel": 5343,
      "gefaßt": 5344,
      "schüt": 5345,
      "toward": 5346,
      "woe": 5347,
      "Schlos": 5348,
      "Schätze": 5349,
      "abo": 5350,
      "gol": 5351,
      "Stat": 5352,
      "counter": 5353,
      "Herzog": 5354,
      "sollst": 5355,
      "Einige": 5356,
      "Leuten": 5357,
      "moment": 5358,
      "poss": 5359,
      "rufen": 5360,
      "Reden": 5361,
      "box": 5362,
      "given": 5363,
      "Mittag": 5364,
      "understand": 5365,
      "begünst": 5366,
      "handeln": 5367,
      "liebte": 5368,
      "Make": 5369,
      "sible": 5370,
      "guy": 5371,
      "return": 5372,
      "fraid": 5373,
      "Beispiel": 5374,
      "feels": 5375,
      "einzige": 5376,
      "empfand": 5377,
      "grünen": 5378,
      "erwartete": 5379,
      "Schlüssel": 5380,
      "züge": 5381,
      "Fuße": 5382,
      "treffliche": 5383,
      "hatever": 5384,
      "Stufen": 5385,
      "Elend": 5386,
      "Feind": 5387,
      "Theresen": 5388,
      "menschlichen": 5389,
      "Scherz": 5390,
      "LAURENCE": 5391,
      "?\"": 5392,
      "Amt": 5393,
      "BY": 5394,
      "Bin": 5395,
      "Dra": 5396,
      "Hau": 5397,
      "MC": 5398,
      "Out": 5399,
      "Tiere": 5400,
      "Wal": 5401,
      "gy": 5402,
      "harm": 5403,
      "mid": 5404,
      "pap": 5405,
      "rup": 5406,
      "zär": 5407,
      "erkannte": 5408,
      "gestanden": 5409,
      "gelangt": 5410,
      "zugehen": 5411,
      "seht": 5412,
      "deter": 5413,
      "become": 5414,
      "youth": 5415,
      "nem": 5416,
      "west": 5417,
      "umm": 5418,
      "shoul": 5419,
      "worthy": 5420,
      "Beute": 5421,
      "Begeben": 5422,
      "Before": 5423,
      "kannten": 5424,
      "pop": 5425,
      "ruft": 5426,
      "justice": 5427,
      "ktor": 5428,
      "allenfalls": 5429,
      "Liebes": 5430,
      "content": 5431,
      "ured": 5432,
      "Orten": 5433,
      "reicher": 5434,
      "ankheit": 5435,
      "bescheiden": 5436,
      "Form": 5437,
      "rechts": 5438,
      "block": 5439,
      "verschlossen": 5440,
      "ächst": 5441,
      "einzigen": 5442,
      "Luci": 5443,
      "gewöhnt": 5444,
      "neither": 5445,
      "treibt": 5446,
      "gefährlich": 5447,
      "seems": 5448,
      "entdecken": 5449,
      "erkund": 5450,
      "Geliebten": 5451,
      "entwickeln": 5452,
      "Stille": 5453,
      "öfters": 5454,
      "Güter": 5455,
      "Sammlung": 5456,
      "Kapelle": 5457,
      "ordentlich": 5458,
      "majesty": 5459,
      "Bal": 5460,
      "Call": 5461,
      "Dein": 5462,
      "FF": 5463,
      "Falle": 5464,
      "Geiste": 5465,
      "Hinder": 5466,
      "IFF": 5467,
      "Kinde": 5468,
      "Mak": 5469,
      "Mauer": 5470,
      "Ohren": 5471,
      "Sha": 5472,
      "aff": 5473,
      "dü": 5474,
      "hart": 5475,
      "iden": 5476,
      "prie": 5477,
      "rte": 5478,
      "sli": 5479,
      "üge": 5480,
      "allgemeine": 5481,
      "bene": 5482,
      "round": 5483,
      "siehst": 5484,
      "sense": 5485,
      "Schü": 5486,
      "Geduld": 5487,
      "trennen": 5488,
      "ierig": 5489,
      "gesucht": 5490,
      "tired": 5491,
      "ric": 5492,
      "Verlust": 5493,
      "fact": 5494,
      "nurse": 5495,
      "wagt": 5496,
      "gleiche": 5497,
      "drauf": 5498,
      "dräng": 5499,
      "wiederzu": 5500,
      "schafft": 5501,
      "grund": 5502,
      "grimm": 5503,
      "gelesen": 5504,
      "Wellen": 5505,
      "mache": 5506,
      "Lieber": 5507,
      "begreifen": 5508,
      "laugh": 5509,
      "beschwer": 5510,
      "Zukunft": 5511,
      "flatter": 5512,
      "Könige": 5513,
      "zweifl": 5514,
      "Major": 5515,
      "suc": 5516,
      "Grunde": 5517,
      "fröh": 5518,
      "wunderlichen": 5519,
      "betrachtet": 5520,
      "Whose": 5521,
      "irgendeine": 5522,
      "Post": 5523,
      "fielen": 5524,
      "entfernte": 5525,
      "UMBER": 5526,
      "Göttin": 5527,
      "THUMBER": 5528,
      "herzlich": 5529,
      "Gabe": 5530,
      "report": 5531,
      "CLIFF": 5532,
      "Superman": 5533,
      "breathe": 5534,
      "Gemälde": 5535,
      "Sorgfalt": 5536,
      "NORTHUMBER": 5537,
      "Gattin": 5538,
      "NORTHUMBERLAND": 5539,
      "Ben": 5540,
      "Dach": 5541,
      "Ehe": 5542,
      "Fin": 5543,
      "Jen": 5544,
      "Kne": 5545,
      "Ohne": 5546,
      "Pom": 5547,
      "Prü": 5548,
      "Paul": 5549,
      "Zut": 5550,
      "Ziel": 5551,
      "cing": 5552,
      "cast": 5553,
      "catch": 5554,
      "gön": 5555,
      "ife": 5556,
      "nirgend": 5557,
      "oc": 5558,
      "rin": 5559,
      "sn": 5560,
      "sna": 5561,
      "squ": 5562,
      "wis": 5563,
      "äche": 5564,
      "ansehn": 5565,
      "ona": 5566,
      "unnen": 5567,
      "unkt": 5568,
      "schrieb": 5569,
      "alen": 5570,
      "alous": 5571,
      "warrant": 5572,
      "mitt": 5573,
      "ftiger": 5574,
      "force": 5575,
      "trou": 5576,
      "liet": 5577,
      "überlassen": 5578,
      "dulden": 5579,
      "brachten": 5580,
      "bringe": 5581,
      "Sol": 5582,
      "cock": 5583,
      "getreten": 5584,
      "ugung": 5585,
      "prü": 5586,
      "quer": 5587,
      "springen": 5588,
      "während": 5589,
      "Engel": 5590,
      "Gegenständen": 5591,
      "Marmor": 5592,
      "zweite": 5593,
      "mächt": 5594,
      "Wahl": 5595,
      "wahrhaft": 5596,
      "wohner": 5597,
      "Juliet": 5598,
      "gewöhnlichen": 5599,
      "Gedanke": 5600,
      "Schönen": 5601,
      "Erstaunen": 5602,
      "strength": 5603,
      "Keep": 5604,
      "talking": 5605,
      "glänzen": 5606,
      "doppelt": 5607,
      "Flamme": 5608,
      "keineswegs": 5609,
      "Gedächt": 5610,
      "Vielleicht": 5611,
      "gelernt": 5612,
      "Away": 5613,
      "Bill": 5614,
      "Epo": 5615,
      "Jä": 5616,
      "Kann": 5617,
      "Lange": 5618,
      "Main": 5619,
      "PR": 5620,
      "Pet": 5621,
      "bü": 5622,
      "bust": 5623,
      "dist": 5624,
      "fat": 5625,
      "fine": 5626,
      "five": 5627,
      "izier": 5628,
      "ku": 5629,
      "lu": 5630,
      "reine": 5631,
      "shr": 5632,
      "whe": 5633,
      "wander": 5634,
      "wanted": 5635,
      "xen": 5636,
      "yield": 5637,
      "ächte": 5638,
      "erw": 5639,
      "stat": 5640,
      "stück": 5641,
      "anstatt": 5642,
      "tear": 5643,
      "sches": 5644,
      "schieden": 5645,
      "schrift": 5646,
      "itself": 5647,
      "bedenken": 5648,
      "lease": 5649,
      "verstand": 5650,
      "verließ": 5651,
      "wise": 5652,
      "unges": 5653,
      "living": 5654,
      "ceed": 5655,
      "abge": 5656,
      "Stau": 5657,
      "Stir": 5658,
      "hindert": 5659,
      "gerä": 5660,
      "führ": 5661,
      "führe": 5662,
      "olit": 5663,
      "unterscheiden": 5664,
      "drunk": 5665,
      "drugs": 5666,
      "samm": 5667,
      "Segen": 5668,
      "Weile": 5669,
      "ella": 5670,
      "anderes": 5671,
      "begin": 5672,
      "glückliche": 5673,
      "Wilhelms": 5674,
      "ANNE": 5675,
      "exc": 5676,
      "maybe": 5677,
      "speed": 5678,
      "wunderliche": 5679,
      "neues": 5680,
      "tiefen": 5681,
      "Tran": 5682,
      "strong": 5683,
      "bedeckt": 5684,
      "Immer": 5685,
      "Kommt": 5686,
      "Kirchen": 5687,
      "minute": 5688,
      "ähnlich": 5689,
      "enemy": 5690,
      "Feinde": 5691,
      "charge": 5692,
      "überrascht": 5693,
      "service": 5694,
      "schlägt": 5695,
      "Zauber": 5696,
      "pflanz": 5697,
      "throat": 5698,
      "Besonders": 5699,
      "!'": 5700,
      "Buck": 5701,
      "Brot": 5702,
      "Car": 5703,
      "Clif": 5704,
      "Feier": 5705,
      "Richt": 5706,
      "Sum": 5707,
      "Vier": 5708,
      "Wach": 5709,
      "Wonne": 5710,
      "Yes": 5711,
      "affe": 5712,
      "ehren": 5713,
      "hur": 5714,
      "idi": 5715,
      "kti": 5716,
      "pas": 5717,
      "röm": 5718,
      "singen": 5719,
      "tur": 5720,
      "zun": 5721,
      "zeig": 5722,
      "einfach": 5723,
      "ller": 5724,
      "iter": 5725,
      "deckt": 5726,
      "aufgere": 5727,
      "dasjenige": 5728,
      "safe": 5729,
      "mend": 5730,
      "hnte": 5731,
      "wohnen": 5732,
      "umständ": 5733,
      "umph": 5734,
      "host": 5735,
      "empt": 5736,
      "dischen": 5737,
      "Aug": 5738,
      "Ankunft": 5739,
      "welt": 5740,
      "voices": 5741,
      "blickte": 5742,
      "einigem": 5743,
      "grab": 5744,
      "bleibe": 5745,
      "herrn": 5746,
      "Frucht": 5747,
      "resol": 5748,
      "motherfuckin": 5749,
      "anzusehen": 5750,
      "appear": 5751,
      "INCE": 5752,
      "Gericht": 5753,
      "ängstlich": 5754,
      "erreicht": 5755,
      "erregt": 5756,
      "Heiligen": 5757,
      "Begierde": 5758,
      "pluck": 5759,
      "Tischbein": 5760,
      "Braut": 5761,
      "bauen": 5762,
      "schwarzen": 5763,
      "Wünschen": 5764,
      "behaglich": 5765,
      "Prinzen": 5766,
      "Verwandten": 5767,
      "couple": 5768,
      "Vernunft": 5769,
      "revenge": 5770,
      "Antwort": 5771,
      "Sommer": 5772,
      "battle": 5773,
      "Sicherheit": 5774,
      "PRINCE": 5775,
      "Ereig": 5776,
      "Kein": 5777,
      "Kleider": 5778,
      "Len": 5779,
      "Opfer": 5780,
      "Vö": 5781,
      "Werner": 5782,
      "afraid": 5783,
      "bal": 5784,
      "breiten": 5785,
      "corn": 5786,
      "dish": 5787,
      "fängt": 5788,
      "field": 5789,
      "gg": 5790,
      "hund": 5791,
      "jä": 5792,
      "jud": 5793,
      "slow": 5794,
      "sworn": 5795,
      "twas": 5796,
      "vater": 5797,
      "erfuhr": 5798,
      "erschienen": 5799,
      "esu": 5800,
      "augen": 5801,
      "armen": 5802,
      "unendlich": 5803,
      "geneigt": 5804,
      "died": 5805,
      "zuzu": 5806,
      "itu": 5807,
      "reckt": 5808,
      "bekennen": 5809,
      "altet": 5810,
      "som": 5811,
      "verwor": 5812,
      "verdien": 5813,
      "verbinden": 5814,
      "ingbroke": 5815,
      "elen": 5816,
      "sake": 5817,
      "kehrte": 5818,
      "weh": 5819,
      "stem": 5820,
      "spar": 5821,
      "Stär": 5822,
      "gelt": 5823,
      "malt": 5824,
      "inkt": 5825,
      "thyself": 5826,
      "zurückzu": 5827,
      "zweifel": 5828,
      "Feder": 5829,
      "gabe": 5830,
      "übung": 5831,
      "großem": 5832,
      "action": 5833,
      "Tags": 5834,
      "entschlossen": 5835,
      "Fülle": 5836,
      "Pfar": 5837,
      "Gerü": 5838,
      "bedeutende": 5839,
      "club": 5840,
      "Leider": 5841,
      "lebhafter": 5842,
      "schweigen": 5843,
      "kenntnis": 5844,
      "Gaben": 5845,
      "hours": 5846,
      "Farbe": 5847,
      "Irrt": 5848,
      "erfreuen": 5849,
      "Mariane": 5850,
      "fürchtete": 5851,
      "Prinz": 5852,
      "Anstalten": 5853,
      "besitzen": 5854,
      "geliebten": 5855,
      "dangerous": 5856,
      "Senator": 5857,
      "beef": 5858,
      "Entzücken": 5859,
      "Signior": 5860,
      "Bolingbroke": 5861,
      "Gedächtnis": 5862,
      "Clifford": 5863,
      "Auß": 5864,
      "Fu": 5865,
      "Farewell": 5866,
      "Lin": 5867,
      "Mor": 5868,
      "Munde": 5869,
      "Neben": 5870,
      "Oper": 5871,
      "Punkte": 5872,
      "Rie": 5873,
      "Sy": 5874,
      "Sä": 5875,
      "Since": 5876,
      "cine": 5877,
      "keinem": 5878,
      "kna": 5879,
      "kraft": 5880,
      "klagen": 5881,
      "ls": 5882,
      "rücken": 5883,
      "ratch": 5884,
      "tum": 5885,
      "vide": 5886,
      "erreichen": 5887,
      "ana": 5888,
      "gezeichnet": 5889,
      "rech": 5890,
      "reicht": 5891,
      "sell": 5892,
      "defen": 5893,
      "versteht": 5894,
      "haste": 5895,
      "utzt": 5896,
      "vorbereitet": 5897,
      "cester": 5898,
      "serve": 5899,
      "Because": 5900,
      "führten": 5901,
      "gleicher": 5902,
      "Unruhe": 5903,
      "stands": 5904,
      "ionen": 5905,
      "Essen": 5906,
      "Sehn": 5907,
      "apt": 5908,
      "Wochen": 5909,
      "Abreise": 5910,
      "Fehler": 5911,
      "blind": 5912,
      "freier": 5913,
      "suffer": 5914,
      "griffe": 5915,
      "Gewissen": 5916,
      "schwanken": 5917,
      "Hoffnungen": 5918,
      "curse": 5919,
      "Para": 5920,
      "geschehn": 5921,
      "zwanz": 5922,
      "supposed": 5923,
      "Masken": 5924,
      "Name": 5925,
      "slain": 5926,
      "dankbar": 5927,
      "rhyme": 5928,
      "piece": 5929,
      "Kaiser": 5930,
      "ALO": 5931,
      "Ehr": 5932,
      "Fo": 5933,
      "Fack": 5934,
      "Hie": 5935,
      "Ritter": 5936,
      "SE": 5937,
      "Sal": 5938,
      "Ter": 5939,
      "Weil": 5940,
      "Zier": 5941,
      "ake": 5942,
      "base": 5943,
      "dut": 5944,
      "ele": 5945,
      "feln": 5946,
      "flam": 5947,
      "feier": 5948,
      "match": 5949,
      "swert": 5950,
      "teile": 5951,
      "sty": 5952,
      "gefühl": 5953,
      "general": 5954,
      "sechs": 5955,
      "ckten": 5956,
      "tomorrow": 5957,
      "Schrecken": 5958,
      "Gehü": 5959,
      "forgot": 5960,
      "maß": 5961,
      "Verzweifl": 5962,
      "reizend": 5963,
      "thers": 5964,
      "sheit": 5965,
      "notwendig": 5966,
      "nend": 5967,
      "Gesellen": 5968,
      "Anlaß": 5969,
      "Ungeduld": 5970,
      "drän": 5971,
      "Einricht": 5972,
      "immerfort": 5973,
      "gegeneinander": 5974,
      "sterben": 5975,
      "innere": 5976,
      "poison": 5977,
      "Too": 5978,
      "Todes": 5979,
      "Seht": 5980,
      "icer": 5981,
      "begreif": 5982,
      "ferne": 5983,
      "handelt": 5984,
      "Glanz": 5985,
      "Besser": 5986,
      "ziehn": 5987,
      "stellungen": 5988,
      "danken": 5989,
      "friar": 5990,
      "Madam": 5991,
      "ungeduld": 5992,
      "Neug": 5993,
      "betrachtete": 5994,
      "weitläu": 5995,
      "started": 5996,
      "entschuld": 5997,
      "muss": 5998,
      "Volke": 5999,
      "nähern": 6000,
      "Krankheit": 6001,
      "älte": 6002,
      "Fahrt": 6003,
      "count": 6004,
      "priv": 6005,
      "mmern": 6006,
      "nächste": 6007,
      "kurzem": 6008,
      "patience": 6009,
      "Nahrung": 6010,
      "einzelne": 6011,
      "Peter": 6012,
      "Belie": 6013,
      "company": 6014,
      "Unsere": 6015,
      "Figur": 6016,
      "kräftig": 6017,
      "scharf": 6018,
      "beauty": 6019,
      "Wenig": 6020,
      "Gärten": 6021,
      "zufällig": 6022,
      "Architekt": 6023,
      "Märchen": 6024,
      "pretty": 6025,
      "hundred": 6026,
      "Verzweiflung": 6027,
      "Cinder": 6028,
      "Di": 6029,
      "Dad": 6030,
      "Hals": 6031,
      "Läch": 6032,
      "Pul": 6033,
      "Punkt": 6034,
      "bas": 6035,
      "bom": 6036,
      "blieben": 6037,
      "cas": 6038,
      "cup": 6039,
      "dden": 6040,
      "greifen": 6041,
      "hi": 6042,
      "ober": 6043,
      "pict": 6044,
      "ritten": 6045,
      "tor": 6046,
      "tit": 6047,
      "tale": 6048,
      "write": 6049,
      "yond": 6050,
      "zig": 6051,
      "enem": 6052,
      "stig": 6053,
      "stro": 6054,
      "geworfen": 6055,
      "sec": 6056,
      "seat": 6057,
      "medi": 6058,
      "benach": 6059,
      "dazwischen": 6060,
      "wift": 6061,
      "ution": 6062,
      "senden": 6063,
      "key": 6064,
      "hende": 6065,
      "ausgest": 6066,
      "ernen": 6067,
      "desire": 6068,
      "few": 6069,
      "fehl": 6070,
      "riften": 6071,
      "golden": 6072,
      "dire": 6073,
      "leisten": 6074,
      "gleichgü": 6075,
      "dritten": 6076,
      "ärm": 6077,
      "mehreren": 6078,
      "Weh": 6079,
      "mußt": 6080,
      "Mangel": 6081,
      "spruch": 6082,
      "sprachen": 6083,
      "hätt": 6084,
      "Mark": 6085,
      "graben": 6086,
      "Umgang": 6087,
      "Master": 6088,
      "exe": 6089,
      "Brunnen": 6090,
      "ungeachtet": 6091,
      "schland": 6092,
      "France": 6093,
      "Grad": 6094,
      "hearts": 6095,
      "IST": 6096,
      "ätzen": 6097,
      "erzählt": 6098,
      "gefällig": 6099,
      "Kranken": 6100,
      "Montag": 6101,
      "join": 6102,
      "gentlemen": 6103,
      "Schicks": 6104,
      "fremde": 6105,
      "krän": 6106,
      "schwebt": 6107,
      "bieten": 6108,
      "strike": 6109,
      "recei": 6110,
      "zarten": 6111,
      "Kniep": 6112,
      "certain": 6113,
      "twice": 6114,
      "Kapit": 6115,
      "Tiefe": 6116,
      "fünf": 6117,
      "Speise": 6118,
      "easy": 6119,
      "Geschäfte": 6120,
      "Behagen": 6121,
      "schwieg": 6122,
      "nirgends": 6123,
      "Jäger": 6124,
      "Cinderella": 6125,
      "Against": 6126,
      "Bart": 6127,
      "Brü": 6128,
      "FL": 6129,
      "Fri": 6130,
      "FID": 6131,
      "Gatten": 6132,
      "Kenn": 6133,
      "Mart": 6134,
      "Messenger": 6135,
      "OW": 6136,
      "Plätz": 6137,
      "Red": 6138,
      "Rett": 6139,
      "baum": 6140,
      "diger": 6141,
      "gange": 6142,
      "häng": 6143,
      "hide": 6144,
      "kan": 6145,
      "pin": 6146,
      "tei": 6147,
      "vow": 6148,
      "gearbeitet": 6149,
      "ardo": 6150,
      "zuge": 6151,
      "regen": 6152,
      "regt": 6153,
      "deed": 6154,
      "bevor": 6155,
      "bedarf": 6156,
      "belebt": 6157,
      "alb": 6158,
      "alth": 6159,
      "alright": 6160,
      "sofern": 6161,
      "versetzt": 6162,
      "ungern": 6163,
      "wet": 6164,
      "Schei": 6165,
      "Schif": 6166,
      "gesicht": 6167,
      "Strom": 6168,
      "reiben": 6169,
      "fack": 6170,
      "Geschen": 6171,
      "unterhielt": 6172,
      "fürchter": 6173,
      "wiederholte": 6174,
      "Einsamkeit": 6175,
      "ändern": 6176,
      "maler": 6177,
      "geschäft": 6178,
      "könig": 6179,
      "möcht": 6180,
      "letter": 6181,
      "Handel": 6182,
      "ctor": 6183,
      "ORIZ": 6184,
      "unseres": 6185,
      "scheu": 6186,
      "Max": 6187,
      "folgten": 6188,
      "scratch": 6189,
      "Meere": 6190,
      "Fluß": 6191,
      "called": 6192,
      "shoes": 6193,
      "Männern": 6194,
      "trock": 6195,
      "lösen": 6196,
      "counsel": 6197,
      "Quartier": 6198,
      "Heiter": 6199,
      "Angeli": 6200,
      "banish": 6201,
      "erblickt": 6202,
      "patient": 6203,
      "Krieg": 6204,
      "balls": 6205,
      "läuft": 6206,
      "Geliebte": 6207,
      "Deutschland": 6208,
      "knife": 6209,
      "confess": 6210,
      "leugnen": 6211,
      "grenzen": 6212,
      "Hamlet": 6213,
      "AUFID": 6214,
      "Pflanzen": 6215,
      "million": 6216,
      "himmli": 6217,
      "Claudio": 6218,
      "duty": 6219,
      "enemies": 6220,
      "FLORIZ": 6221,
      "AUFIDIUS": 6222,
      "FLORIZEL": 6223,
      "Bret": 6224,
      "Ew": 6225,
      "Ear": 6226,
      "Hum": 6227,
      "Häl": 6228,
      "Jung": 6229,
      "Jack": 6230,
      "Kop": 6231,
      "Lü": 6232,
      "Muß": 6233,
      "Pre": 6234,
      "Tra": 6235,
      "Wü": 6236,
      "blichen": 6237,
      "bour": 6238,
      "cir": 6239,
      "fas": 6240,
      "flä": 6241,
      "ides": 6242,
      "ju": 6243,
      "kör": 6244,
      "ktion": 6245,
      "lz": 6246,
      "mmt": 6247,
      "ron": 6248,
      "sorgen": 6249,
      "tu": 6250,
      "zed": 6251,
      "öch": 6252,
      "cha": 6253,
      "chain": 6254,
      "inten": 6255,
      "stei": 6256,
      "stant": 6257,
      "stuck": 6258,
      "strich": 6259,
      "gedrängt": 6260,
      "lligkeit": 6261,
      "arch": 6262,
      "orben": 6263,
      "uni": 6264,
      "reach": 6265,
      "dame": 6266,
      "mitten": 6267,
      "rate": 6268,
      "locken": 6269,
      "wood": 6270,
      "weak": 6271,
      "desselben": 6272,
      "forder": 6273,
      "merkt": 6274,
      "sport": 6275,
      "ride": 6276,
      "iles": 6277,
      "Sturm": 6278,
      "dul": 6279,
      "riechen": 6280,
      "geteilt": 6281,
      "drein": 6282,
      "dring": 6283,
      "gewiss": 6284,
      "Einfluß": 6285,
      "heiß": 6286,
      "gebo": 6287,
      "ION": 6288,
      "Mantel": 6289,
      "begab": 6290,
      "teilt": 6291,
      "Woche": 6292,
      "bitten": 6293,
      "Ausführung": 6294,
      "wenigsten": 6295,
      "ERS": 6296,
      "einigemal": 6297,
      "bling": 6298,
      "Reiter": 6299,
      "Größe": 6300,
      "Boten": 6301,
      "Blü": 6302,
      "respect": 6303,
      "Füße": 6304,
      "äußerst": 6305,
      "viol": 6306,
      "finger": 6307,
      "clou": 6308,
      "brauchen": 6309,
      "sonderbaren": 6310,
      "krank": 6311,
      "cross": 6312,
      "fully": 6313,
      "seltsamen": 6314,
      "unerträglich": 6315,
      "Papst": 6316,
      "Gebirg": 6317,
      "Folgen": 6318,
      "begleiten": 6319,
      "ützen": 6320,
      "entdeckt": 6321,
      "ungeheure": 6322,
      "niggas": 6323,
      "gewaltsam": 6324,
      "Rückkehr": 6325,
      "Regiment": 6326,
      "Flammen": 6327,
      "behandelt": 6328,
      "pleasure": 6329,
      "Narz": 6330,
      "entbehren": 6331,
      "Lebhaftigkeit": 6332,
      "deliver": 6333,
      "Prüf": 6334,
      "AS": 6335,
      "Ball": 6336,
      "Hil": 6337,
      "Hör": 6338,
      "Mr": 6339,
      "Merk": 6340,
      "Sat": 6341,
      "Sorgen": 6342,
      "bly": 6343,
      "bürger": 6344,
      "dge": 6345,
      "iol": 6346,
      "linken": 6347,
      "mild": 6348,
      "nice": 6349,
      "pale": 6350,
      "swer": 6351,
      "vict": 6352,
      "yah": 6353,
      "chtet": 6354,
      "ieten": 6355,
      "aner": 6356,
      "eifr": 6357,
      "unend": 6358,
      "unverm": 6359,
      "until": 6360,
      "schloß": 6361,
      "itzen": 6362,
      "isk": 6363,
      "achsen": 6364,
      "held": 6365,
      "miteinander": 6366,
      "hness": 6367,
      "tried": 6368,
      "werd": 6369,
      "usses": 6370,
      "amp": 6371,
      "riage": 6372,
      "gerufen": 6373,
      "Gespen": 6374,
      "fürwahr": 6375,
      "moon": 6376,
      "innung": 6377,
      "canst": 6378,
      "antas": 6379,
      "hierüber": 6380,
      "gebrochen": 6381,
      "Freundschaft": 6382,
      "frommen": 6383,
      "wäch": 6384,
      "Geschichten": 6385,
      "sometimes": 6386,
      "eigene": 6387,
      "Nachdem": 6388,
      "ziehung": 6389,
      "Feste": 6390,
      "Beide": 6391,
      "Landschaft": 6392,
      "stock": 6393,
      "betrifft": 6394,
      "Philo": 6395,
      "tempt": 6396,
      "deutschen": 6397,
      "Klar": 6398,
      "Eduards": 6399,
      "heilig": 6400,
      "Mont": 6401,
      "reuz": 6402,
      "Große": 6403,
      "Bücher": 6404,
      "erinnert": 6405,
      "wallow": 6406,
      "afft": 6407,
      "witness": 6408,
      "Offizier": 6409,
      "Mittler": 6410,
      "longer": 6411,
      "Umgebung": 6412,
      "Gentleman": 6413,
      "possess": 6414,
      "**": 6415,
      "Bi": 6416,
      "CIUS": 6417,
      "Fie": 6418,
      "Hi": 6419,
      "Lö": 6420,
      "Nob": 6421,
      "Pri": 6422,
      "Ped": 6423,
      "Please": 6424,
      "San": 6425,
      "Two": 6426,
      "Völ": 6427,
      "bones": 6428,
      "gan": 6429,
      "ny": 6430,
      "ually": 6431,
      "zwe": 6432,
      "zeiten": 6433,
      "ächen": 6434,
      "erfreut": 6435,
      "stag": 6436,
      "anfing": 6437,
      "geh": 6438,
      "gehoben": 6439,
      "ungest": 6440,
      "oucester": 6441,
      "zugebracht": 6442,
      "deutet": 6443,
      "bell": 6444,
      "beur": 6445,
      "lebe": 6446,
      "lets": 6447,
      "legs": 6448,
      "irr": 6449,
      "ires": 6450,
      "verbar": 6451,
      "lichten": 6452,
      "town": 6453,
      "hafter": 6454,
      "wier": 6455,
      "manchem": 6456,
      "loy": 6457,
      "umzu": 6458,
      "etten": 6459,
      "Schlä": 6460,
      "Gewe": 6461,
      "Gebrauch": 6462,
      "fordern": 6463,
      "vorigen": 6464,
      "gespr": 6465,
      "cept": 6466,
      "making": 6467,
      "weite": 6468,
      "entreat": 6469,
      "Stay": 6470,
      "önen": 6471,
      "bricht": 6472,
      "brief": 6473,
      "differ": 6474,
      "leichte": 6475,
      "illa": 6476,
      "illo": 6477,
      "ends": 6478,
      "unterrichtet": 6479,
      "glass": 6480,
      "dran": 6481,
      "dress": 6482,
      "dringt": 6483,
      "mond": 6484,
      "Toten": 6485,
      "kleines": 6486,
      "gic": 6487,
      "ahmen": 6488,
      "Ihrer": 6489,
      "ics": 6490,
      "Heer": 6491,
      "proble": 6492,
      "White": 6493,
      "atest": 6494,
      "glückt": 6495,
      "Gloucester": 6496,
      "March": 6497,
      "lieblich": 6498,
      "Rock": 6499,
      "wurf": 6500,
      "Unternehmen": 6501,
      "Entsch": 6502,
      "brave": 6503,
      "bildet": 6504,
      "freuen": 6505,
      "killed": 6506,
      "Most": 6507,
      "girls": 6508,
      "beschäftigte": 6509,
      "kömm": 6510,
      "begegnete": 6511,
      "schweben": 6512,
      "MARCIUS": 6513,
      "packt": 6514,
      "Treue": 6515,
      "BAST": 6516,
      "thanks": 6517,
      "unglücklichen": 6518,
      "gewährt": 6519,
      "förm": 6520,
      "lächelnd": 6521,
      "Guess": 6522,
      "motherfucker": 6523,
      "Korso": 6524,
      "reibung": 6525,
      "mannigfalt": 6526,
      "fleißig": 6527,
      "gewünscht": 6528,
      "trouble": 6529,
      "Lenardo": 6530,
      "SEBAST": 6531,
      "Montague": 6532,
      "Angelika": 6533,
      "SEBASTIAN": 6534,
      "50": 6535,
      "Jag": 6536,
      "MON": 6537,
      "Pl": 6538,
      "Za": 6539,
      "Zä": 6540,
      "Zer": 6541,
      "dust": 6542,
      "deines": 6543,
      "gates": 6544,
      "iv": 6545,
      "lauf": 6546,
      "mi": 6547,
      "mas": 6548,
      "oked": 6549,
      "pan": 6550,
      "vice": 6551,
      "wus": 6552,
      "wuchs": 6553,
      "yell": 6554,
      "ente": 6555,
      "ergeben": 6556,
      "insofern": 6557,
      "stage": 6558,
      "teen": 6559,
      "unauf": 6560,
      "befrie": 6561,
      "alive": 6562,
      "lege": 6563,
      "versä": 6564,
      "ingham": 6565,
      "loving": 6566,
      "ausgesprochen": 6567,
      "Schrift": 6568,
      "Schutz": 6569,
      "trö": 6570,
      "ladies": 6571,
      "vorteil": 6572,
      "vorstellen": 6573,
      "vorgestellt": 6574,
      "spür": 6575,
      "abin": 6576,
      "fag": 6577,
      "bruch": 6578,
      "langer": 6579,
      "pfte": 6580,
      "Lehr": 6581,
      "mock": 6582,
      "grand": 6583,
      "malen": 6584,
      "pos": 6585,
      "Reicht": 6586,
      "gebor": 6587,
      "office": 6588,
      "wählen": 6589,
      "fortzu": 6590,
      "Thus": 6591,
      "teilnehmen": 6592,
      "beschä": 6593,
      "eignet": 6594,
      "themselves": 6595,
      "verschwunden": 6596,
      "größere": 6597,
      "marriage": 6598,
      "Flor": 6599,
      "sky": 6600,
      "Gewöl": 6601,
      "Ruh": 6602,
      "zierlich": 6603,
      "Pferden": 6604,
      "gutem": 6605,
      "Shepherd": 6606,
      "fearful": 6607,
      "überzeugung": 6608,
      "natürlichen": 6609,
      "Frieden": 6610,
      "bottle": 6611,
      "erinnere": 6612,
      "Familien": 6613,
      "nützlich": 6614,
      "Everybody": 6615,
      "legung": 6616,
      "soldiers": 6617,
      "Fläche": 6618,
      "ewigen": 6619,
      "bedenklich": 6620,
      "wounds": 6621,
      "Grenzen": 6622,
      "verweilen": 6623,
      "Camillo": 6624,
      "paper": 6625,
      "Schüler": 6626,
      "Epoche": 6627,
      "augenblick": 6628,
      "benachbar": 6629,
      "Rettung": 6630,
      "BION": 6631,
      "Dro": 6632,
      "DEL": 6633,
      "Fur": 6634,
      "Hir": 6635,
      "Hut": 6636,
      "Hung": 6637,
      "Hold": 6638,
      "Ihren": 6639,
      "Les": 6640,
      "List": 6641,
      "Lady": 6642,
      "Val": 6643,
      "aß": 6644,
      "bast": 6645,
      "cu": 6646,
      "crow": 6647,
      "gä": 6648,
      "ivi": 6649,
      "pein": 6650,
      "vour": 6651,
      "wein": 6652,
      "wretch": 6653,
      "zin": 6654,
      "öpfen": 6655,
      "ined": 6656,
      "einig": 6657,
      "gehor": 6658,
      "unbekannt": 6659,
      "befindet": 6660,
      "vernommen": 6661,
      "nose": 6662,
      "utes": 6663,
      "mity": 6664,
      "rah": 6665,
      "Gemein": 6666,
      "trifft": 6667,
      "festen": 6668,
      "tiful": 6669,
      "ents": 6670,
      "entstehen": 6671,
      "entweder": 6672,
      "ielt": 6673,
      "withal": 6674,
      "gerissen": 6675,
      "leichten": 6676,
      "riefen": 6677,
      "leiter": 6678,
      "Bedeut": 6679,
      "glühen": 6680,
      "drum": 6681,
      "tack": 6682,
      "Einer": 6683,
      "Instru": 6684,
      "ätsel": 6685,
      "altes": 6686,
      "qual": 6687,
      "Mitter": 6688,
      "gefiel": 6689,
      "seek": 6690,
      "nächt": 6691,
      "blows": 6692,
      "legenheiten": 6693,
      "folge": 6694,
      "ations": 6695,
      "sudden": 6696,
      "Los": 6697,
      "science": 6698,
      "fragt": 6699,
      "Landes": 6700,
      "stoßen": 6701,
      "ular": 6702,
      "Proof": 6703,
      "entscheiden": 6704,
      "Mädchens": 6705,
      "Klug": 6706,
      "Strei": 6707,
      "Urteil": 6708,
      "fremd": 6709,
      "folgenden": 6710,
      "reuen": 6711,
      "nebeneinander": 6712,
      "Qual": 6713,
      "überzeugen": 6714,
      "vollendet": 6715,
      "wüßte": 6716,
      "ützt": 6717,
      "gewähren": 6718,
      "schwarz": 6719,
      "vermehren": 6720,
      "nuts": 6721,
      "Hastings": 6722,
      "böse": 6723,
      "homie": 6724,
      "Künste": 6725,
      "Heftigkeit": 6726,
      "Schlosse": 6727,
      "Petr": 6728,
      "excuse": 6729,
      "Buckingham": 6730,
      "empty": 6731,
      "BIONDEL": 6732,
      "BIONDELLO": 6733,
      "App": 6734,
      "Akt": 6735,
      "Atem": 6736,
      "Bauern": 6737,
      "Det": 6738,
      "Edel": 6739,
      "Flas": 6740,
      "Ku": 6741,
      "Kol": 6742,
      "Lan": 6743,
      "Lob": 6744,
      "Pracht": 6745,
      "Ri": 6746,
      "Räume": 6747,
      "Seit": 6748,
      "Trieb": 6749,
      "aw": 6750,
      "blich": 6751,
      "blen": 6752,
      "cum": 6753,
      "flich": 6754,
      "fließen": 6755,
      "hungen": 6756,
      "kor": 6757,
      "oo": 6758,
      "opf": 6759,
      "pu": 6760,
      "sim": 6761,
      "sion": 6762,
      "slaughter": 6763,
      "ual": 6764,
      "uhig": 6765,
      "zit": 6766,
      "zart": 6767,
      "öhnen": 6768,
      "angr": 6769,
      "gelo": 6770,
      "zugrunde": 6771,
      "schr": 6772,
      "sequ": 6773,
      "belo": 6774,
      "beleben": 6775,
      "betreten": 6776,
      "leute": 6777,
      "soft": 6778,
      "versuchen": 6779,
      "sieben": 6780,
      "widow": 6781,
      "sack": 6782,
      "mitzu": 6783,
      "weich": 6784,
      "Schwert": 6785,
      "wash": 6786,
      "feuer": 6787,
      "cell": 6788,
      "entstand": 6789,
      "entspr": 6790,
      "rise": 6791,
      "Erden": 6792,
      "upid": 6793,
      "Gesund": 6794,
      "Bequem": 6795,
      "Belly": 6796,
      "Ansehn": 6797,
      "Angesicht": 6798,
      "Hermann": 6799,
      "gettin": 6800,
      "wiederholen": 6801,
      "gebau": 6802,
      "boot": 6803,
      "rühren": 6804,
      "Weisheit": 6805,
      "glicher": 6806,
      "produ": 6807,
      "Handlung": 6808,
      "Handlungen": 6809,
      "assung": 6810,
      "Rollen": 6811,
      "folk": 6812,
      "Haare": 6813,
      "breast": 6814,
      "glaubten": 6815,
      "highness": 6816,
      "issue": 6817,
      "heads": 6818,
      "digung": 6819,
      "Gewinn": 6820,
      "month": 6821,
      "couldn": 6822,
      "window": 6823,
      "aufgehoben": 6824,
      "spielte": 6825,
      "wünschten": 6826,
      "kurzen": 6827,
      "kurze": 6828,
      "schreiten": 6829,
      "Poli": 6830,
      "klärung": 6831,
      "blame": 6832,
      "reinlich": 6833,
      "Norfolk": 6834,
      "sonderbare": 6835,
      "souls": 6836,
      "Philinen": 6837,
      "schwebte": 6838,
      "Stock": 6839,
      "stürzte": 6840,
      "Trauer": 6841,
      "Begleiter": 6842,
      "dringend": 6843,
      "bunten": 6844,
      "erklärte": 6845,
      "vermehrte": 6846,
      "sanft": 6847,
      "John": 6848,
      "Aurelien": 6849,
      "further": 6850,
      "feind": 6851,
      "Idee": 6852,
      "promise": 6853,
      "bemüht": 6854,
      "Sterne": 6855,
      "America": 6856,
      "Veränderung": 6857,
      "Haup": 6858,
      "drängten": 6859,
      "Zutrauen": 6860,
      "sammlung": 6861,
      "aufgeregt": 6862,
      "Stärke": 6863,
      "Fuhr": 6864,
      "zwanzig": 6865,
      "Hälfte": 6866,
      "Klarheit": 6867,
      "AUM": 6868,
      "Bro": 6869,
      "Breite": 6870,
      "DA": 6871,
      "Eing": 6872,
      "Eugen": 6873,
      "Fuchs": 6874,
      "Hus": 6875,
      "HER": 6876,
      "Heir": 6877,
      "Know": 6878,
      "Mater": 6879,
      "Massen": 6880,
      "Pall": 6881,
      "Rh": 6882,
      "Sar": 6883,
      "Sing": 6884,
      "Tä": 6885,
      "Zwer": 6886,
      "aben": 6887,
      "bi": 6888,
      "biß": 6889,
      "cred": 6890,
      "fachen": 6891,
      "gie": 6892,
      "glad": 6893,
      "jammer": 6894,
      "sme": 6895,
      "ume": 6896,
      "Üb": 6897,
      "erze": 6898,
      "ergriffen": 6899,
      "inke": 6900,
      "ndlich": 6901,
      "stain": 6902,
      "statten": 6903,
      "stücke": 6904,
      "getz": 6905,
      "gehei": 6906,
      "gekehrt": 6907,
      "arten": 6908,
      "unaus": 6909,
      "unruhig": 6910,
      "asure": 6911,
      "schei": 6912,
      "redete": 6913,
      "sex": 6914,
      "behold": 6915,
      "leep": 6916,
      "verse": 6917,
      "versprechen": 6918,
      "toll": 6919,
      "stecken": 6920,
      "Schwä": 6921,
      "werben": 6922,
      "unsers": 6923,
      "feet": 6924,
      "fect": 6925,
      "entsetz": 6926,
      "Stimmung": 6927,
      "Vere": 6928,
      "dium": 6929,
      "uppe": 6930,
      "bessern": 6931,
      "worüber": 6932,
      "änn": 6933,
      "Anti": 6934,
      "untereinander": 6935,
      "cheer": 6936,
      "ourselves": 6937,
      "schaff": 6938,
      "butt": 6939,
      "freuten": 6940,
      "barer": 6941,
      "mortal": 6942,
      "boom": 6943,
      "ordnung": 6944,
      "sprich": 6945,
      "eigner": 6946,
      "thinking": 6947,
      "ERLE": 6948,
      "traurige": 6949,
      "danke": 6950,
      "Waffen": 6951,
      "didst": 6952,
      "fresh": 6953,
      "tiefe": 6954,
      "tryin": 6955,
      "throne": 6956,
      "Genug": 6957,
      "oulda": 6958,
      "Lucentio": 6959,
      "needs": 6960,
      "Kleinen": 6961,
      "seits": 6962,
      "ONIO": 6963,
      "mighty": 6964,
      "lernte": 6965,
      "writ": 6966,
      "Welcome": 6967,
      "clear": 6968,
      "ruhige": 6969,
      "heavens": 6970,
      "leuchtete": 6971,
      "single": 6972,
      "supp": 6973,
      "fließt": 6974,
      "entdeckte": 6975,
      "getrost": 6976,
      "sämtlich": 6977,
      "Ebenso": 6978,
      "stärker": 6979,
      "Muster": 6980,
      "stolz": 6981,
      "Burg": 6982,
      "betrogen": 6983,
      "Quelle": 6984,
      "Schmuck": 6985,
      "gewissermaßen": 6986,
      "Schule": 6987,
      "ANTONIO": 6988,
      "birth": 6989,
      "stomach": 6990,
      "Beschäftigung": 6991,
      "umständlich": 6992,
      "drängte": 6993,
      "Einrichtung": 6994,
      "Lächeln": 6995,
      "title": 6996,
      "Heiterkeit": 6997,
      "different": 6998,
      "Jagd": 6999,
      "ividu": 7000,
      "Mitternacht": 7001,
      "AUMERLE": 7002,
      "00": 7003,
      "Ain": 7004,
      "Bian": 7005,
      "Cha": 7006,
      "Dicht": 7007,
      "Donn": 7008,
      "Eil": 7009,
      "Iph": 7010,
      "Kauf": 7011,
      "Klei": 7012,
      "Met": 7013,
      "Taten": 7014,
      "Tugend": 7015,
      "ZALO": 7016,
      "caught": 7017,
      "kins": 7018,
      "nte": 7019,
      "number": 7020,
      "obern": 7021,
      "pä": 7022,
      "pes": 7023,
      "wisse": 7024,
      "eingerichtet": 7025,
      "anen": 7026,
      "anke": 7027,
      "anus": 7028,
      "gegrü": 7029,
      "gefühlt": 7030,
      "gewid": 7031,
      "orge": 7032,
      "ordent": 7033,
      "unwider": 7034,
      "schä": 7035,
      "beten": 7036,
      "noise": 7037,
      "ney": 7038,
      "wilden": 7039,
      "loose": 7040,
      "Sche": 7041,
      "anny": 7042,
      "lap": 7043,
      "gesorgt": 7044,
      "sper": 7045,
      "weißen": 7046,
      "entsteht": 7047,
      "beider": 7048,
      "edler": 7049,
      "fame": 7050,
      "besetzt": 7051,
      "Begriffe": 7052,
      "gewachsen": 7053,
      "tagen": 7054,
      "taste": 7055,
      "tape": 7056,
      "male": 7057,
      "Daseins": 7058,
      "Rechen": 7059,
      "gib": 7060,
      "sayin": 7061,
      "solch": 7062,
      "solchem": 7063,
      "proof": 7064,
      "somebody": 7065,
      "anks": 7066,
      "Marry": 7067,
      "traurig": 7068,
      "liebsten": 7069,
      "Reihen": 7070,
      "sider": 7071,
      "genugsam": 7072,
      "Bogen": 7073,
      "speech": 7074,
      "besondere": 7075,
      "redung": 7076,
      "ächter": 7077,
      "caster": 7078,
      "offenbar": 7079,
      "aded": 7080,
      "windet": 7081,
      "mäßigen": 7082,
      "schwerlich": 7083,
      "Norden": 7084,
      "heitere": 7085,
      "Welche": 7086,
      "hofft": 7087,
      "schicken": 7088,
      "zwöl": 7089,
      "bury": 7090,
      "ernstlich": 7091,
      "smile": 7092,
      "Laune": 7093,
      "baw": 7094,
      "fangs": 7095,
      "corner": 7096,
      "Armee": 7097,
      "fördern": 7098,
      "gewaltig": 7099,
      "miser": 7100,
      "visit": 7101,
      "gelegentlich": 7102,
      "würdiger": 7103,
      "punkt": 7104,
      "beautiful": 7105,
      "bezahlen": 7106,
      "gerührt": 7107,
      "Relig": 7108,
      "käme": 7109,
      "rappers": 7110,
      "GONZALO": 7111,
      "Finstern": 7112,
      "zunächst": 7113,
      "ungeduldig": 7114,
      "Völker": 7115,
      "Lancaster": 7116,
      "angry": 7117,
      "Bequemlichkeit": 7118,
      "Iphigen": 7119,
      "2X": 7120,
      "Alas": 7121,
      "Being": 7122,
      "Fro": 7123,
      "Kla": 7124,
      "Meinen": 7125,
      "SA": 7126,
      "Sk": 7127,
      "Sand": 7128,
      "Siz": 7129,
      "Tanz": 7130,
      "fei": 7131,
      "lers": 7132,
      "nine": 7133,
      "ome": 7134,
      "pern": 7135,
      "sweise": 7136,
      "erwe": 7137,
      "anischen": 7138,
      "gewei": 7139,
      "undet": 7140,
      "ony": 7141,
      "geno": 7142,
      "genä": 7143,
      "scheine": 7144,
      "schlief": 7145,
      "italien": 7146,
      "beständig": 7147,
      "irm": 7148,
      "ckel": 7149,
      "sogen": 7150,
      "igh": 7151,
      "iginal": 7152,
      "nest": 7153,
      "liber": 7154,
      "ettel": 7155,
      "ernsten": 7156,
      "Schlei": 7157,
      "Schlag": 7158,
      "Gewer": 7159,
      "forward": 7160,
      "trick": 7161,
      "merry": 7162,
      "vorkommen": 7163,
      "amber": 7164,
      "rid": 7165,
      "ilty": 7166,
      "Stamm": 7167,
      "Verw": 7168,
      "Verbrechen": 7169,
      "gerei": 7170,
      "worst": 7171,
      "worship": 7172,
      "endigt": 7173,
      "Anlagen": 7174,
      "Angst": 7175,
      "Anzahl": 7176,
      "dry": 7177,
      "Einsicht": 7178,
      "gelte": 7179,
      "outta": 7180,
      "heilige": 7181,
      "Vorsicht": 7182,
      "hierauf": 7183,
      "bosom": 7184,
      "quiet": 7185,
      "gift": 7186,
      "suche": 7187,
      "suchten": 7188,
      "teilte": 7189,
      "lauter": 7190,
      "Gegenwär": 7191,
      "merkwürdig": 7192,
      "lation": 7193,
      "beln": 7194,
      "bless": 7195,
      "folg": 7196,
      "Haar": 7197,
      "Glücks": 7198,
      "Augenblicken": 7199,
      "speci": 7200,
      "immern": 7201,
      "Hölle": 7202,
      "Höhle": 7203,
      "greatest": 7204,
      "monster": 7205,
      "Phantas": 7206,
      "brav": 7207,
      "Zustände": 7208,
      "kurzer": 7209,
      "appro": 7210,
      "Jahrs": 7211,
      "shows": 7212,
      "Schwelle": 7213,
      "clean": 7214,
      "Büch": 7215,
      "Eigenschaften": 7216,
      "Held": 7217,
      "Gemüts": 7218,
      "Bilde": 7219,
      "fliehen": 7220,
      "double": 7221,
      "slut": 7222,
      "knees": 7223,
      "ehemals": 7224,
      "vermehrt": 7225,
      "köstlichen": 7226,
      "platz": 7227,
      "schrecklichen": 7228,
      "Lampen": 7229,
      "blauen": 7230,
      "bestimmten": 7231,
      "erlaubt": 7232,
      "Richtung": 7233,
      "Sehnsucht": 7234,
      "verbarg": 7235,
      "Eugenie": 7236,
      "Bianca": 7237,
      "Sizilien": 7238,
      "Ahnung": 7239,
      "Biz": 7240,
      "Baby": 7241,
      "CLAU": 7242,
      "Dab": 7243,
      "DIO": 7244,
      "Eif": 7245,
      "Fal": 7246,
      "Lä": 7247,
      "Nutzen": 7248,
      "Prä": 7249,
      "Rauch": 7250,
      "Rate": 7251,
      "Sonn": 7252,
      "Seinigen": 7253,
      "Their": 7254,
      "Unend": 7255,
      "ager": 7256,
      "affen": 7257,
      "bänd": 7258,
      "euer": 7259,
      "fli": 7260,
      "gn": 7261,
      "gin": 7262,
      "gner": 7263,
      "gänger": 7264,
      "jet": 7265,
      "knie": 7266,
      "nein": 7267,
      "pis": 7268,
      "passen": 7269,
      "ugte": 7270,
      "wof": 7271,
      "wra": 7272,
      "wink": 7273,
      "zlich": 7274,
      "story": 7275,
      "thri": 7276,
      "ansehen": 7277,
      "aneinander": 7278,
      "gehören": 7279,
      "geheimnis": 7280,
      "gelangte": 7281,
      "unüber": 7282,
      "dereinst": 7283,
      "schwur": 7284,
      "schritt": 7285,
      "iten": 7286,
      "deny": 7287,
      "denselben": 7288,
      "verständig": 7289,
      "tert": 7290,
      "often": 7291,
      "saßen": 7292,
      "wars": 7293,
      "oms": 7294,
      "etze": 7295,
      "Schä": 7296,
      "Gefühle": 7297,
      "forderte": 7298,
      "trü": 7299,
      "liest": 7300,
      "liebst": 7301,
      "überlie": 7302,
      "tischen": 7303,
      "abhäng": 7304,
      "selig": 7305,
      "entstanden": 7306,
      "Statt": 7307,
      "Verdienst": 7308,
      "reitete": 7309,
      "fahl": 7310,
      "waff": 7311,
      "ries": 7312,
      "willing": 7313,
      "änke": 7314,
      "Herzo": 7315,
      "halbe": 7316,
      "pper": 7317,
      "grä": 7318,
      "Ins": 7319,
      "nied": 7320,
      "Wiesen": 7321,
      "Hey": 7322,
      "Geschrei": 7323,
      "sons": 7324,
      "Wohn": 7325,
      "eight": 7326,
      "glücklicher": 7327,
      "flesh": 7328,
      "handlung": 7329,
      "stellten": 7330,
      "melden": 7331,
      "fold": 7332,
      "hörten": 7333,
      "fähig": 7334,
      "Mathers": 7335,
      "glaub": 7336,
      "Neu": 7337,
      "sichtbar": 7338,
      "Seid": 7339,
      "Bergen": 7340,
      "Grade": 7341,
      "Ruinen": 7342,
      "empfing": 7343,
      "empfunden": 7344,
      "ignor": 7345,
      "drown": 7346,
      "aufgestellt": 7347,
      "natur": 7348,
      "schwach": 7349,
      "Beschreibung": 7350,
      "ausgeführt": 7351,
      "beschäftigen": 7352,
      "Fälle": 7353,
      "außerordentlich": 7354,
      "Volks": 7355,
      "acting": 7356,
      "ernsthaft": 7357,
      "small": 7358,
      "Paler": 7359,
      "Darstellung": 7360,
      "affa": 7361,
      "Charlottens": 7362,
      "verwundert": 7363,
      "nutzen": 7364,
      "Früchte": 7365,
      "erfreulich": 7366,
      "Element": 7367,
      "crying": 7368,
      "verwandt": 7369,
      "Marianen": 7370,
      "vergangen": 7371,
      "MIONE": 7372,
      "verwirrt": 7373,
      "günstig": 7374,
      "question": 7375,
      "Böse": 7376,
      "kümmert": 7377,
      "dorthin": 7378,
      "vergnügt": 7379,
      "spoke": 7380,
      "dünkt": 7381,
      "Gnade": 7382,
      "beobachten": 7383,
      "Lydie": 7384,
      "entzückt": 7385,
      "Holz": 7386,
      "subject": 7387,
      "Think": 7388,
      "verkünd": 7389,
      "Galer": 7390,
      "Besitzer": 7391,
      "CLIFFORD": 7392,
      "Staub": 7393,
      "verworren": 7394,
      "Irrtum": 7395,
      "Schiffe": 7396,
      "Humor": 7397,
      "Bedeutung": 7398,
      "Gesundheit": 7399,
      "HERMIONE": 7400,
      "CLAUDIO": 7401,
      "'?": 7402,
      "Bahn": 7403,
      "Drei": 7404,
      "Dire": 7405,
      "Eurer": 7406,
      "Isa": 7407,
      "IRAN": 7408,
      "JO": 7409,
      "Kur": 7410,
      "LORD": 7411,
      "Mä": 7412,
      "Muse": 7413,
      "MIRAN": 7414,
      "Nah": 7415,
      "Right": 7416,
      "Seinen": 7417,
      "Wander": 7418,
      "Wände": 7419,
      "Zir": 7420,
      "aim": 7421,
      "buck": 7422,
      "cat": 7423,
      "citizen": 7424,
      "cely": 7425,
      "eth": 7426,
      "funden": 7427,
      "hall": 7428,
      "klo": 7429,
      "lachen": 7430,
      "mb": 7431,
      "rissen": 7432,
      "rough": 7433,
      "twere": 7434,
      "vous": 7435,
      "wrote": 7436,
      "zir": 7437,
      "ünd": 7438,
      "erer": 7439,
      "erhält": 7440,
      "erheben": 7441,
      "inted": 7442,
      "sters": 7443,
      "anfangs": 7444,
      "ausen": 7445,
      "arre": 7446,
      "unzä": 7447,
      "atur": 7448,
      "schleich": 7449,
      "seg": 7450,
      "meich": 7451,
      "verlangen": 7452,
      "verhältnis": 7453,
      "lio": 7454,
      "ista": 7455,
      "steckte": 7456,
      "Schel": 7457,
      "Schriften": 7458,
      "dows": 7459,
      "hoes": 7460,
      "uchio": 7461,
      "sprü": 7462,
      "tire": 7463,
      "beiseite": 7464,
      "ilst": 7465,
      "reife": 7466,
      "önnt": 7467,
      "edig": 7468,
      "Diesen": 7469,
      "dict": 7470,
      "wagte": 7471,
      "besorgt": 7472,
      "woraus": 7473,
      "fügen": 7474,
      "oler": 7475,
      "naked": 7476,
      "ourn": 7477,
      "halben": 7478,
      "Unless": 7479,
      "dritte": 7480,
      "ppt": 7481,
      "Inner": 7482,
      "inning": 7483,
      "pound": 7484,
      "Vorschlag": 7485,
      "Vorstellungen": 7486,
      "ertragen": 7487,
      "Weimar": 7488,
      "Geschwi": 7489,
      "prote": 7490,
      "Aufidi": 7491,
      "consul": 7492,
      "conscience": 7493,
      "track": 7494,
      "foe": 7495,
      "Better": 7496,
      "Grimb": 7497,
      "Boy": 7498,
      "wunderlich": 7499,
      "Geistlichen": 7500,
      "anyone": 7501,
      "Mehr": 7502,
      "Höhen": 7503,
      "Fluch": 7504,
      "skin": 7505,
      "einzig": 7506,
      "Genie": 7507,
      "General": 7508,
      "sprech": 7509,
      "Willkür": 7510,
      "phone": 7511,
      "Saale": 7512,
      "Blicke": 7513,
      "keeps": 7514,
      "streets": 7515,
      "Verhältnissen": 7516,
      "Jahres": 7517,
      "frown": 7518,
      "Fähig": 7519,
      "Meeres": 7520,
      "Rechts": 7521,
      "tiefsten": 7522,
      "dürfte": 7523,
      "bunes": 7524,
      "Elemente": 7525,
      "wichtigen": 7526,
      "behauptete": 7527,
      "sigh": 7528,
      "Altar": 7529,
      "betroffen": 7530,
      "Lampe": 7531,
      "ewige": 7532,
      "zufäll": 7533,
      "motherfuckers": 7534,
      "liebenswürdig": 7535,
      "dunkel": 7536,
      "Gnaden": 7537,
      "zerstreut": 7538,
      "satis": 7539,
      "virtue": 7540,
      "Venedig": 7541,
      "ceive": 7542,
      "human": 7543,
      "Zeugnis": 7544,
      "Pompe": 7545,
      "Tranio": 7546,
      "begreiflich": 7547,
      "possible": 7548,
      "Petruchio": 7549,
      "Dabei": 7550,
      "Herzogs": 7551,
      "Palermo": 7552,
      "MIRANDA": 7553,
      "Aufidius": 7554,
      "Grimbart": 7555,
      "Bapt": 7556,
      "DI": 7557,
      "Eh": 7558,
      "Ecke": 7559,
      "HN": 7560,
      "Kim": 7561,
      "Koffer": 7562,
      "Nase": 7563,
      "Py": 7564,
      "Ring": 7565,
      "Sinnen": 7566,
      "SON": 7567,
      "Sänger": 7568,
      "Saint": 7569,
      "dread": 7570,
      "krie": 7571,
      "kaufen": 7572,
      "nennt": 7573,
      "pel": 7574,
      "shin": 7575,
      "swallow": 7576,
      "tö": 7577,
      "tör": 7578,
      "uous": 7579,
      "ument": 7580,
      "chka": 7581,
      "inno": 7582,
      "einsam": 7583,
      "anfangen": 7584,
      "getrau": 7585,
      "auen": 7586,
      "gene": 7587,
      "zuviel": 7588,
      "ities": 7589,
      "rever": 7590,
      "bestand": 7591,
      "beast": 7592,
      "bewußt": 7593,
      "andrer": 7594,
      "ley": 7595,
      "leun": 7596,
      "irren": 7597,
      "heftigen": 7598,
      "berge": 7599,
      "haha": 7600,
      "imstande": 7601,
      "dasselbe": 7602,
      "senten": 7603,
      "raise": 7604,
      "wogen": 7605,
      "woher": 7606,
      "aussee": 7607,
      "annen": 7608,
      "tru": 7609,
      "trash": 7610,
      "uche": 7611,
      "vorsicht": 7612,
      "vortrefflich": 7613,
      "feste": 7614,
      "spiele": 7615,
      "übergeben": 7616,
      "Stab": 7617,
      "Stätte": 7618,
      "Verderben": 7619,
      "Erfa": 7620,
      "durcheinander": 7621,
      "shi": 7622,
      "ußt": 7623,
      "admit": 7624,
      "eils": 7625,
      "nochmals": 7626,
      "Anlage": 7627,
      "fürst": 7628,
      "jealous": 7629,
      "gewicht": 7630,
      "wiederher": 7631,
      "pflegen": 7632,
      "lyric": 7633,
      "moved": 7634,
      "poli": 7635,
      "poet": 7636,
      "Tower": 7637,
      "klingt": 7638,
      "presen": 7639,
      "Rest": 7640,
      "lash": 7641,
      "Dagegen": 7642,
      "boten": 7643,
      "quite": 7644,
      "blicken": 7645,
      "angefangen": 7646,
      "Hell": 7647,
      "ohnehin": 7648,
      "comin": 7649,
      "Lieder": 7650,
      "Chaussee": 7651,
      "Spiele": 7652,
      "Formen": 7653,
      "Natalien": 7654,
      "perform": 7655,
      "Herrschaft": 7656,
      "Herrlichkeit": 7657,
      "mäh": 7658,
      "frischen": 7659,
      "Lohn": 7660,
      "Both": 7661,
      "bedro": 7662,
      "Entdeck": 7663,
      "Neues": 7664,
      "Kunstwerke": 7665,
      "putzt": 7666,
      "skill": 7667,
      "Gestern": 7668,
      "Ruhm": 7669,
      "motherfucking": 7670,
      "shots": 7671,
      "irgendein": 7672,
      "build": 7673,
      "gefällt": 7674,
      "hereintrat": 7675,
      "ika": 7676,
      "zügen": 7677,
      "bedeutender": 7678,
      "zeitig": 7679,
      "lights": 7680,
      "Hereford": 7681,
      "zerstört": 7682,
      "hauen": 7683,
      "Papiere": 7684,
      "neigh": 7685,
      "stürzen": 7686,
      "Barones": 7687,
      "packen": 7688,
      "clock": 7689,
      "begleitete": 7690,
      "Plane": 7691,
      "enthielt": 7692,
      "Maler": 7693,
      "Thron": 7694,
      "bösen": 7695,
      "Zurück": 7696,
      "versammelt": 7697,
      "Kutschen": 7698,
      "Speak": 7699,
      "begrüßte": 7700,
      "Soldaten": 7701,
      "vantage": 7702,
      "mannigfal": 7703,
      "freiem": 7704,
      "französischen": 7705,
      "pussy": 7706,
      "gesetzten": 7707,
      "Römer": 7708,
      "Stühle": 7709,
      "August": 7710,
      "Ereignis": 7711,
      "Pfarrer": 7712,
      "bomb": 7713,
      "secret": 7714,
      "Martin": 7715,
      "körper": 7716,
      "geboten": 7717,
      "benachbarten": 7718,
      "Klugheit": 7719,
      "Bellyn": 7720,
      "smell": 7721,
      "Phantasie": 7722,
      "JOHN": 7723,
      "Fähigkeiten": 7724,
      "Baronesse": 7725,
      "Bra": 7726,
      "Bür": 7727,
      "Could": 7728,
      "Dör": 7729,
      "Ere": 7730,
      "Hunde": 7731,
      "Kay": 7732,
      "Kath": 7733,
      "Kreuz": 7734,
      "Lond": 7735,
      "Long": 7736,
      "Puppen": 7737,
      "Rä": 7738,
      "Rätsel": 7739,
      "Raffa": 7740,
      "Stern": 7741,
      "Tun": 7742,
      "Try": 7743,
      "Turn": 7744,
      "Viele": 7745,
      "Watch": 7746,
      "ahnung": 7747,
      "ez": 7748,
      "fingen": 7749,
      "gle": 7750,
      "kalt": 7751,
      "luck": 7752,
      "loud": 7753,
      "pi": 7754,
      "pite": 7755,
      "push": 7756,
      "publi": 7757,
      "preisen": 7758,
      "vul": 7759,
      "wreck": 7760,
      "ößt": 7761,
      "erzogen": 7762,
      "erlangen": 7763,
      "anci": 7764,
      "angesehen": 7765,
      "anständig": 7766,
      "gekannt": 7767,
      "gekleidet": 7768,
      "asleep": 7769,
      "gent": 7770,
      "atte": 7771,
      "ators": 7772,
      "schelten": 7773,
      "request": 7774,
      "seven": 7775,
      "deeds": 7776,
      "bestellt": 7777,
      "ishmen": 7778,
      "versich": 7779,
      "verlei": 7780,
      "today": 7781,
      "allow": 7782,
      "roof": 7783,
      "herauszu": 7784,
      "utter": 7785,
      "ragt": 7786,
      "wem": 7787,
      "weap": 7788,
      "wiegen": 7789,
      "umte": 7790,
      "Schalk": 7791,
      "Schande": 7792,
      "Gedich": 7793,
      "Geheim": 7794,
      "ürzt": 7795,
      "usk": 7796,
      "usse": 7797,
      "usur": 7798,
      "usion": 7799,
      "ames": 7800,
      "gesund": 7801,
      "tische": 7802,
      "emon": 7803,
      "seligkeit": 7804,
      "Stan": 7805,
      "Stroh": 7806,
      "Versch": 7807,
      "Verrä": 7808,
      "nachläss": 7809,
      "Erlaub": 7810,
      "shar": 7811,
      "brü": 7812,
      "Bekannten": 7813,
      "Unschuld": 7814,
      "taking": 7815,
      "takes": 7816,
      "thout": 7817,
      "grant": 7818,
      "Wechsel": 7819,
      "erecht": 7820,
      "Vorhang": 7821,
      "gebü": 7822,
      "hnet": 7823,
      "Seelen": 7824,
      "angezogen": 7825,
      "Hea": 7826,
      "contin": 7827,
      "reichlich": 7828,
      "Woll": 7829,
      "beschäd": 7830,
      "Nachdenken": 7831,
      "gesto": 7832,
      "thence": 7833,
      "Glut": 7834,
      "Maria": 7835,
      "Without": 7836,
      "fälle": 7837,
      "Hafen": 7838,
      "expect": 7839,
      "Betr": 7840,
      "Denken": 7841,
      "Gruß": 7842,
      "wunderbare": 7843,
      "besondern": 7844,
      "Entsetzen": 7845,
      "frühe": 7846,
      "respe": 7847,
      "strö": 7848,
      "psy": 7849,
      "starke": 7850,
      "Notwend": 7851,
      "dying": 7852,
      "irgendwo": 7853,
      "lands": 7854,
      "schreibe": 7855,
      "trocken": 7856,
      "äußere": 7857,
      "vermeiden": 7858,
      "harren": 7859,
      "carry": 7860,
      "stuff": 7861,
      "Liebchen": 7862,
      "Bünd": 7863,
      "hieher": 7864,
      "ruhiger": 7865,
      "schickte": 7866,
      "schweigend": 7867,
      "künftigen": 7868,
      "ledge": 7869,
      "Richmond": 7870,
      "Melo": 7871,
      "ungeheuren": 7872,
      "grauen": 7873,
      "besuchte": 7874,
      "Frühl": 7875,
      "höhern": 7876,
      "entwickelt": 7877,
      "bride": 7878,
      "klagte": 7879,
      "darkness": 7880,
      "Zeichnung": 7881,
      "Habt": 7882,
      "Ideen": 7883,
      "Architekten": 7884,
      "mindeste": 7885,
      "schlafen": 7886,
      "versprochen": 7887,
      "kauft": 7888,
      "veranlaßt": 7889,
      "beruhigen": 7890,
      "quarrel": 7891,
      "Coriol": 7892,
      "Bemühungen": 7893,
      "Begebenheiten": 7894,
      "düster": 7895,
      "zeigten": 7896,
      "Vögel": 7897,
      "Schicksale": 7898,
      "bißchen": 7899,
      "Rechenschaft": 7900,
      "London": 7901,
      "Coriolanus": 7902,
      "Ama": 7903,
      "Asche": 7904,
      "Bist": 7905,
      "Bot": 7906,
      "Del": 7907,
      "Gön": 7908,
      "Grau": 7909,
      "Glau": 7910,
      "Has": 7911,
      "Hätte": 7912,
      "Lein": 7913,
      "Lücke": 7914,
      "Mom": 7915,
      "Mün": 7916,
      "NT": 7917,
      "Oft": 7918,
      "PH": 7919,
      "Pens": 7920,
      "Swe": 7921,
      "Sam": 7922,
      "Tü": 7923,
      "Weit": 7924,
      "Zettel": 7925,
      "bite": 7926,
      "cru": 7927,
      "feit": 7928,
      "gänge": 7929,
      "hunder": 7930,
      "ize": 7931,
      "jur": 7932,
      "klam": 7933,
      "länd": 7934,
      "lingen": 7935,
      "mess": 7936,
      "nin": 7937,
      "ooh": 7938,
      "patch": 7939,
      "sus": 7940,
      "tar": 7941,
      "tue": 7942,
      "twillen": 7943,
      "wandern": 7944,
      "whatever": 7945,
      "ächtig": 7946,
      "err": 7947,
      "erheiter": 7948,
      "chamber": 7949,
      "ichs": 7950,
      "esser": 7951,
      "thor": 7952,
      "eingenommen": 7953,
      "anständ": 7954,
      "geld": 7955,
      "gelei": 7956,
      "gestand": 7957,
      "gemalt": 7958,
      "arbeit": 7959,
      "ato": 7960,
      "itches": 7961,
      "rege": 7962,
      "dec": 7963,
      "bestehen": 7964,
      "iron": 7965,
      "isn": 7966,
      "versehen": 7967,
      "hey": 7968,
      "allgemein": 7969,
      "berufen": 7970,
      "imag": 7971,
      "herausge": 7972,
      "sagten": 7973,
      "ists": 7974,
      "weed": 7975,
      "voneinander": 7976,
      "stead": 7977,
      "stelle": 7978,
      "Schil": 7979,
      "Geh": 7980,
      "Gebet": 7981,
      "George": 7982,
      "dope": 7983,
      "trenn": 7984,
      "feast": 7985,
      "spä": 7986,
      "spray": 7987,
      "Star": 7988,
      "hinan": 7989,
      "dua": 7990,
      "nay": 7991,
      "Anstand": 7992,
      "Lehre": 7993,
      "grown": 7994,
      "darnach": 7995,
      "darunter": 7996,
      "standing": 7997,
      "innig": 7998,
      "Vorbei": 7999,
      "Vortrag": 8000,
      "Vorteile": 8001,
      "Remember": 8002,
      "erstes": 8003,
      "quält": 8004,
      "giving": 8005,
      "garet": 8006,
      "äulein": 8007,
      "würfe": 8008,
      "letters": 8009,
      "wäl": 8010,
      "ops": 8011,
      "conc": 8012,
      "zurückkehren": 8013,
      "wegzu": 8014,
      "Whom": 8015,
      "Handels": 8016,
      "goodbye": 8017,
      "Abwesen": 8018,
      "häre": 8019,
      "ziem": 8020,
      "Margaret": 8021,
      "verschmä": 8022,
      "traur": 8023,
      "broken": 8024,
      "frische": 8025,
      "Madame": 8026,
      "wandeln": 8027,
      "bestimmen": 8028,
      "Geistliche": 8029,
      "widerwär": 8030,
      "Tritt": 8031,
      "green": 8032,
      "cape": 8033,
      "küßte": 8034,
      "wußten": 8035,
      "Ruf": 8036,
      "stron": 8037,
      "gebrauch": 8038,
      "wohnten": 8039,
      "starken": 8040,
      "freundliche": 8041,
      "paßt": 8042,
      "CATES": 8043,
      "attend": 8044,
      "holung": 8045,
      "freude": 8046,
      "Sprach": 8047,
      "Drum": 8048,
      "North": 8049,
      "sinnig": 8050,
      "prayers": 8051,
      "Padua": 8052,
      "erregen": 8053,
      "erregte": 8054,
      "Dienste": 8055,
      "leuchten": 8056,
      "burg": 8057,
      "walls": 8058,
      "cloth": 8059,
      "Existen": 8060,
      "Nieder": 8061,
      "schwarze": 8062,
      "knee": 8063,
      "dreams": 8064,
      "Gasthof": 8065,
      "schnitt": 8066,
      "stärk": 8067,
      "Innern": 8068,
      "Eurem": 8069,
      "persön": 8070,
      "entertain": 8071,
      "drive": 8072,
      "Fleiß": 8073,
      "verzeihen": 8074,
      "Bemerkungen": 8075,
      "Bedienten": 8076,
      "jähr": 8077,
      "ISTOP": 8078,
      "clouds": 8079,
      "Narziß": 8080,
      "Hilfe": 8081,
      "zweck": 8082,
      "befriedigen": 8083,
      "Hunger": 8084,
      "Baptista": 8085,
      "presence": 8086,
      "Erlaubnis": 8087,
      "CATESBY": 8088,
      "(\"": 8089,
      "Bre": 8090,
      "Big": 8091,
      "Bäumen": 8092,
      "Che": 8093,
      "Dä": 8094,
      "Find": 8095,
      "Ferner": 8096,
      "Griechen": 8097,
      "Händ": 8098,
      "Hack": 8099,
      "Keine": 8100,
      "Med": 8101,
      "Pein": 8102,
      "Pil": 8103,
      "Pater": 8104,
      "Tante": 8105,
      "Vin": 8106,
      "Wendung": 8107,
      "ather": 8108,
      "blan": 8109,
      "dings": 8110,
      "dump": 8111,
      "effe": 8112,
      "eks": 8113,
      "hip": 8114,
      "ias": 8115,
      "ited": 8116,
      "klang": 8117,
      "leitung": 8118,
      "messen": 8119,
      "olog": 8120,
      "piss": 8121,
      "rückt": 8122,
      "sst": 8123,
      "sser": 8124,
      "sinken": 8125,
      "smack": 8126,
      "uft": 8127,
      "xe": 8128,
      "erwerben": 8129,
      "church": 8130,
      "ination": 8131,
      "stadt": 8132,
      "stupid": 8133,
      "gefahren": 8134,
      "gedenke": 8135,
      "geliebt": 8136,
      "unen": 8137,
      "aside": 8138,
      "schel": 8139,
      "schär": 8140,
      "schwär": 8141,
      "sever": 8142,
      "seligen": 8143,
      "befinde": 8144,
      "lean": 8145,
      "sole": 8146,
      "verlie": 8147,
      "verweil": 8148,
      "note": 8149,
      "ima": 8150,
      "kept": 8151,
      "stete": 8152,
      "steel": 8153,
      "etzte": 8154,
      "Schwer": 8155,
      "hlten": 8156,
      "trinken": 8157,
      "laster": 8158,
      "feed": 8159,
      "selbigen": 8160,
      "weile": 8161,
      "weißt": 8162,
      "weitern": 8163,
      "beizu": 8164,
      "Erwart": 8165,
      "brä": 8166,
      "brennen": 8167,
      "wain": 8168,
      "wast": 8169,
      "Sobald": 8170,
      "coll": 8171,
      "glü": 8172,
      "dränge": 8173,
      "gewußt": 8174,
      "Einzel": 8175,
      "Lebe": 8176,
      "mosp": 8177,
      "gelaufen": 8178,
      "geschle": 8179,
      "geschichte": 8180,
      "geschoben": 8181,
      "geschmack": 8182,
      "freue": 8183,
      "Vorder": 8184,
      "Dass": 8185,
      "ischt": 8186,
      "schonen": 8187,
      "gebäu": 8188,
      "Damen": 8189,
      "erstaunt": 8190,
      "wards": 8191,
      "Weiß": 8192,
      "comple": 8193,
      "Geschöpfe": 8194,
      "glichkeit": 8195,
      "consent": 8196,
      "eigne": 8197,
      "örder": 8198,
      "kings": 8199,
      "kingdom": 8200,
      "flachen": 8201,
      "ziehe": 8202,
      "ziemt": 8203,
      "Markt": 8204,
      "Aussichten": 8205,
      "gehenden": 8206,
      "daneben": 8207,
      "Wait": 8208,
      "blü": 8209,
      "blue": 8210,
      "guilty": 8211,
      "wunderbaren": 8212,
      "acle": 8213,
      "Bring": 8214,
      "Brücke": 8215,
      "bedur": 8216,
      "Entwick": 8217,
      "schlü": 8218,
      "neuern": 8219,
      "stood": 8220,
      "herrlichsten": 8221,
      "sitzt": 8222,
      "sitzend": 8223,
      "Berü": 8224,
      "Fräulein": 8225,
      "mont": 8226,
      "phi": 8227,
      "leaving": 8228,
      "freundlichen": 8229,
      "irgendeinem": 8230,
      "deutsche": 8231,
      "Menschheit": 8232,
      "bilder": 8233,
      "heilt": 8234,
      "Kahn": 8235,
      "boys": 8236,
      "Schluß": 8237,
      "playin": 8238,
      "schweren": 8239,
      "falschen": 8240,
      "heiterer": 8241,
      "pride": 8242,
      "Talente": 8243,
      "kost": 8244,
      "liebevoll": 8245,
      "Nächte": 8246,
      "vertrauen": 8247,
      "Gesichter": 8248,
      "Großen": 8249,
      "meistens": 8250,
      "ergreifen": 8251,
      "hoffnung": 8252,
      "Music": 8253,
      "Vogel": 8254,
      "starting": 8255,
      "Hinze": 8256,
      "köstlich": 8257,
      "treuen": 8258,
      "behagen": 8259,
      "eignes": 8260,
      "GREY": 8261,
      "Pfaffen": 8262,
      "punch": 8263,
      "Kenntnisse": 8264,
      "getrennt": 8265,
      "Gründe": 8266,
      "fetch": 8267,
      "eidung": 8268,
      "anmutig": 8269,
      "Gemahlin": 8270,
      "Auftrag": 8271,
      "Winkel": 8272,
      "gelangten": 8273,
      "Städtchen": 8274,
      "control": 8275,
      "Bemerkung": 8276,
      "Zerstreu": 8277,
      "Silber": 8278,
      "befestigt": 8279,
      "Frankreich": 8280,
      "Streben": 8281,
      "above": 8282,
      "begünstigt": 8283,
      "success": 8284,
      "ungeschick": 8285,
      "Daddy": 8286,
      "execut": 8287,
      "fasser": 8288,
      "gewidmet": 8289,
      "zwölf": 8290,
      "Religion": 8291,
      "Erfahrung": 8292,
      "ahnungs": 8293,
      "Amaz": 8294,
      "Acht": 8295,
      "Blo": 8296,
      "Bauer": 8297,
      "BIAN": 8298,
      "Druck": 8299,
      "Euren": 8300,
      "HEL": 8301,
      "Kummer": 8302,
      "Mau": 8303,
      "Mist": 8304,
      "Mien": 8305,
      "Ner": 8306,
      "Ox": 8307,
      "Obie": 8308,
      "Pan": 8309,
      "Pers": 8310,
      "Pause": 8311,
      "Rache": 8312,
      "RIV": 8313,
      "Sm": 8314,
      "Su": 8315,
      "Sitz": 8316,
      "Six": 8317,
      "Tönen": 8318,
      "avo": 8319,
      "bang": 8320,
      "fange": 8321,
      "fond": 8322,
      "gän": 8323,
      "gage": 8324,
      "här": 8325,
      "hause": 8326,
      "ime": 8327,
      "iant": 8328,
      "jugend": 8329,
      "kund": 8330,
      "nimm": 8331,
      "sang": 8332,
      "sort": 8333,
      "sätze": 8334,
      "ua": 8335,
      "erlauben": 8336,
      "ini": 8337,
      "ieg": 8338,
      "stars": 8339,
      "thre": 8340,
      "derung": 8341,
      "atzen": 8342,
      "atze": 8343,
      "schil": 8344,
      "itzt": 8345,
      "redet": 8346,
      "remain": 8347,
      "delt": 8348,
      "depart": 8349,
      "begeben": 8350,
      "bemerk": 8351,
      "bewahrt": 8352,
      "behende": 8353,
      "alischen": 8354,
      "legten": 8355,
      "igga": 8356,
      "verlegen": 8357,
      "versagen": 8358,
      "verletzt": 8359,
      "versucht": 8360,
      "verwahrt": 8361,
      "haßt": 8362,
      "lic": 8363,
      "istol": 8364,
      "wieviel": 8365,
      "ausgeb": 8366,
      "wirft": 8367,
      "ftiges": 8368,
      "unsicht": 8369,
      "gespiel": 8370,
      "split": 8371,
      "übereinander": 8372,
      "abri": 8373,
      "iling": 8374,
      "reißt": 8375,
      "durchzu": 8376,
      "Somet": 8377,
      "Beob": 8378,
      "Bewußt": 8379,
      "Behandlung": 8380,
      "eilten": 8381,
      "unterwegs": 8382,
      "wiederhol": 8383,
      "Lest": 8384,
      "artiges": 8385,
      "gräß": 8386,
      "gelungen": 8387,
      "darzustellen": 8388,
      "heira": 8389,
      "bares": 8390,
      "ruf": 8391,
      "Vorwurf": 8392,
      "erstar": 8393,
      "quartier": 8394,
      "Wirtin": 8395,
      "gives": 8396,
      "venge": 8397,
      "finite": 8398,
      "Weite": 8399,
      "Weizen": 8400,
      "müt": 8401,
      "prof": 8402,
      "beggar": 8403,
      "consider": 8404,
      "Organ": 8405,
      "thinkin": 8406,
      "perfect": 8407,
      "gacy": 8408,
      "mächtigen": 8409,
      "Aller": 8410,
      "teln": 8411,
      "Majest": 8412,
      "Haß": 8413,
      "magst": 8414,
      "größern": 8415,
      "march": 8416,
      "Flut": 8417,
      "verbreitet": 8418,
      "empfind": 8419,
      "möglichst": 8420,
      "brace": 8421,
      "Hüt": 8422,
      "temp": 8423,
      "wirkte": 8424,
      "öffnet": 8425,
      "öffnete": 8426,
      "attention": 8427,
      "appe": 8428,
      "erwarteten": 8429,
      "holden": 8430,
      "trotz": 8431,
      "Yea": 8432,
      "vise": 8433,
      "vierzehn": 8434,
      "sähe": 8435,
      "Gerät": 8436,
      "Studium": 8437,
      "lernt": 8438,
      "vermuten": 8439,
      "harmon": 8440,
      "dauern": 8441,
      "running": 8442,
      "zerstör": 8443,
      "MEPH": 8444,
      "gebildete": 8445,
      "gebildeten": 8446,
      "Fenstern": 8447,
      "Stop": 8448,
      "Gebirgs": 8449,
      "bietet": 8450,
      "zwungen": 8451,
      "choice": 8452,
      "Baron": 8453,
      "genaue": 8454,
      "ähnlichen": 8455,
      "crew": 8456,
      "jedesmal": 8457,
      "ränk": 8458,
      "triumph": 8459,
      "BAL": 8460,
      "Peace": 8461,
      "slave": 8462,
      "tüm": 8463,
      "Karne": 8464,
      "BRA": 8465,
      "Wirtsh": 8466,
      "Through": 8467,
      "berührt": 8468,
      "daddy": 8469,
      "besitzt": 8470,
      "Häusern": 8471,
      "verwirren": 8472,
      "versammel": 8473,
      "Kampf": 8474,
      "verändern": 8475,
      "Zeichnungen": 8476,
      "Erdreich": 8477,
      "Reinekens": 8478,
      "füllte": 8479,
      "knüpft": 8480,
      "friedigt": 8481,
      "princely": 8482,
      "beruhigt": 8483,
      "Wallis": 8484,
      "Wahnsinn": 8485,
      "Grillen": 8486,
      "Gebärden": 8487,
      "Seligkeit": 8488,
      "nötigen": 8489,
      "Bedingung": 8490,
      "dunkl": 8491,
      "Knecht": 8492,
      "whether": 8493,
      "pflanzt": 8494,
      "picture": 8495,
      "geschäftig": 8496,
      "fläche": 8497,
      "Reichtum": 8498,
      "mitzuteilen": 8499,
      "Rhein": 8500,
      "Verehrung": 8501,
      "ishment": 8502,
      "Existenz": 8503,
      "ISTOPHEL": 8504,
      "hoffnungs": 8505,
      "BIANCA": 8506,
      "RIVERS": 8507,
      "Sometimes": 8508,
      "MEPHISTOPHEL": 8509,
      "MEPHISTOPHELES": 8510,
      "!!": 8511,
      "-,": 8512,
      "Bande": 8513,
      "BOW": 8514,
      "Fische": 8515,
      "GAU": 8516,
      "Hy": 8517,
      "Hit": 8518,
      "Ihn": 8519,
      "Länge": 8520,
      "Nate": 8521,
      "Pu": 8522,
      "Sessel": 8523,
      "Turm": 8524,
      "Wund": 8525,
      "Züge": 8526,
      "bitt": 8527,
      "flip": 8528,
      "jack": 8529,
      "oun": 8530,
      "py": 8531,
      "ping": 8532,
      "pot": 8533,
      "reiner": 8534,
      "sour": 8535,
      "sätzen": 8536,
      "zür": 8537,
      "enge": 8538,
      "erreich": 8539,
      "ino": 8540,
      "stone": 8541,
      "stunde": 8542,
      "ano": 8543,
      "geleitet": 8544,
      "dere": 8545,
      "dieu": 8546,
      "ata": 8547,
      "attet": 8548,
      "zuhalten": 8549,
      "zugute": 8550,
      "schten": 8551,
      "schlich": 8552,
      "schlan": 8553,
      "schalt": 8554,
      "remind": 8555,
      "tensi": 8556,
      "soph": 8557,
      "igr": 8558,
      "heftiger": 8559,
      "tere": 8560,
      "nehmer": 8561,
      "roten": 8562,
      "aufrichtig": 8563,
      "mitteilen": 8564,
      "lier": 8565,
      "lived": 8566,
      "wol": 8567,
      "vey": 8568,
      "ausdrücken": 8569,
      "Gedränge": 8570,
      "forever": 8571,
      "laid": 8572,
      "fehle": 8573,
      "geschen": 8574,
      "ably": 8575,
      "ustom": 8576,
      "govern": 8577,
      "Verona": 8578,
      "Erfind": 8579,
      "Erziehung": 8580,
      "besucht": 8581,
      "Gesinnung": 8582,
      "ille": 8583,
      "änzer": 8584,
      "unterrichten": 8585,
      "cool": 8586,
      "cops": 8587,
      "gewann": 8588,
      "schaden": 8589,
      "mochten": 8590,
      "gelö": 8591,
      "gelingen": 8592,
      "Inseln": 8593,
      "Weber": 8594,
      "heiße": 8595,
      "klü": 8596,
      "Reste": 8597,
      "schaftlichen": 8598,
      "rühmen": 8599,
      "angelegt": 8600,
      "okal": 8601,
      "treat": 8602,
      "sprung": 8603,
      "müßten": 8604,
      "loszu": 8605,
      "anderen": 8606,
      "proceed": 8607,
      "songs": 8608,
      "conten": 8609,
      "shed": 8610,
      "eigenes": 8611,
      "eigentlichen": 8612,
      "Wohin": 8613,
      "Wollen": 8614,
      "beschleun": 8615,
      "insane": 8616,
      "Nachahm": 8617,
      "näck": 8618,
      "About": 8619,
      "Emigr": 8620,
      "zweifeln": 8621,
      "belong": 8622,
      "grade": 8623,
      "Made": 8624,
      "extre": 8625,
      "extra": 8626,
      "Denaun": 8627,
      "langten": 8628,
      "scorn": 8629,
      "ELBOW": 8630,
      "hervorbringen": 8631,
      "schlimmer": 8632,
      "stoß": 8633,
      "Höch": 8634,
      "Flucht": 8635,
      "hearing": 8636,
      "schaut": 8637,
      "Decke": 8638,
      "phys": 8639,
      "öhnt": 8640,
      "gefäll": 8641,
      "strebt": 8642,
      "Krone": 8643,
      "Strafe": 8644,
      "lustigen": 8645,
      "playing": 8646,
      "prepar": 8647,
      "trefflicher": 8648,
      "Studien": 8649,
      "Leidenschaften": 8650,
      "ugenden": 8651,
      "Mode": 8652,
      "mäßige": 8653,
      "Jahrhundert": 8654,
      "Schwestern": 8655,
      "Leibe": 8656,
      "frohen": 8657,
      "zerstören": 8658,
      "Ihrem": 8659,
      "Lichter": 8660,
      "Gesichts": 8661,
      "tätigen": 8662,
      "tätige": 8663,
      "Only": 8664,
      "destroy": 8665,
      "Bruders": 8666,
      "bottom": 8667,
      "valiant": 8668,
      "crim": 8669,
      "süßen": 8670,
      "unglücklich": 8671,
      "kinda": 8672,
      "grausam": 8673,
      "verehren": 8674,
      "lawful": 8675,
      "changed": 8676,
      "Deutschen": 8677,
      "verliert": 8678,
      "presently": 8679,
      "interessant": 8680,
      "behandeln": 8681,
      "Fürstin": 8682,
      "behaupten": 8683,
      "Gedicht": 8684,
      "spazieren": 8685,
      "Flächen": 8686,
      "Magd": 8687,
      "Versuche": 8688,
      "Auftritt": 8689,
      "famous": 8690,
      "gnädig": 8691,
      "belehren": 8692,
      "Kellner": 8693,
      "storm": 8694,
      "oppo": 8695,
      "Vergangen": 8696,
      "kämpfen": 8697,
      "Gebärde": 8698,
      "begriff": 8699,
      "Amtmann": 8700,
      "zärtlich": 8701,
      "geräum": 8702,
      "gleichgültig": 8703,
      "Prüfung": 8704,
      "wächst": 8705,
      "Nobody": 8706,
      "Marchese": 8707,
      "unwidersteh": 8708,
      "Jahrszeit": 8709,
      "unzäh": 8710,
      "Kathar": 8711,
      "ancient": 8712,
      "Notwendigkeit": 8713,
      "Oxford": 8714,
      "gespielt": 8715,
      "Bewußtsein": 8716,
      "GAUNT": 8717,
      "Ahn": 8718,
      "Dum": 8719,
      "Enden": 8720,
      "Either": 8721,
      "Fell": 8722,
      "Gange": 8723,
      "Gret": 8724,
      "GUE": 8725,
      "Hund": 8726,
      "Halt": 8727,
      "Kanz": 8728,
      "Kard": 8729,
      "Mäu": 8730,
      "Orest": 8731,
      "Rath": 8732,
      "Richter": 8733,
      "TY": 8734,
      "Töne": 8735,
      "Tugenden": 8736,
      "Uh": 8737,
      "Väter": 8738,
      "Wöl": 8739,
      "Zorn": 8740,
      "aa": 8741,
      "awake": 8742,
      "dämmer": 8743,
      "elle": 8744,
      "fier": 8745,
      "fied": 8746,
      "fände": 8747,
      "fix": 8748,
      "fought": 8749,
      "gall": 8750,
      "gste": 8751,
      "hid": 8752,
      "later": 8753,
      "männ": 8754,
      "nimmer": 8755,
      "plot": 8756,
      "rum": 8757,
      "rush": 8758,
      "sum": 8759,
      "taten": 8760,
      "table": 8761,
      "vine": 8762,
      "ww": 8763,
      "weinen": 8764,
      "zö": 8765,
      "ästen": 8766,
      "erwor": 8767,
      "erhaben": 8768,
      "erleuchtet": 8769,
      "chase": 8770,
      "ndes": 8771,
      "stigen": 8772,
      "store": 8773,
      "struck": 8774,
      "ankt": 8775,
      "eisen": 8776,
      "teach": 8777,
      "gehör": 8778,
      "geendigt": 8779,
      "oura": 8780,
      "asked": 8781,
      "dieselbe": 8782,
      "ature": 8783,
      "zustande": 8784,
      "schänd": 8785,
      "schwere": 8786,
      "dennoch": 8787,
      "bedien": 8788,
      "besteht": 8789,
      "betragen": 8790,
      "soeben": 8791,
      "versen": 8792,
      "versagt": 8793,
      "vermögen": 8794,
      "verstehe": 8795,
      "haps": 8796,
      "rob": 8797,
      "roit": 8798,
      "eless": 8799,
      "warst": 8800,
      "steal": 8801,
      "ausdrück": 8802,
      "umsonst": 8803,
      "Schle": 8804,
      "Schlange": 8805,
      "Schwier": 8806,
      "Gegner": 8807,
      "desper": 8808,
      "hoher": 8809,
      "trugen": 8810,
      "uchen": 8811,
      "wasser": 8812,
      "feur": 8813,
      "fester": 8814,
      "spent": 8815,
      "spend": 8816,
      "spiegel": 8817,
      "überein": 8818,
      "überließ": 8819,
      "tive": 8820,
      "emo": 8821,
      "absol": 8822,
      "abwechsel": 8823,
      "usten": 8824,
      "tze": 8825,
      "dise": 8826,
      "wager": 8827,
      "riebe": 8828,
      "woren": 8829,
      "Ansehen": 8830,
      "coward": 8831,
      "Ungehe": 8832,
      "drüber": 8833,
      "drüben": 8834,
      "jeglicher": 8835,
      "taken": 8836,
      "gelitten": 8837,
      "Insel": 8838,
      "Wegen": 8839,
      "geschw": 8840,
      "klaren": 8841,
      "ruht": 8842,
      "gebieten": 8843,
      "ordnet": 8844,
      "suchung": 8845,
      "müßt": 8846,
      "mütig": 8847,
      "lächer": 8848,
      "apart": 8849,
      "fühlten": 8850,
      "stiller": 8851,
      "Nachmit": 8852,
      "gestört": 8853,
      "flucht": 8854,
      "häl": 8855,
      "Werden": 8856,
      "fallend": 8857,
      "Rosen": 8858,
      "blut": 8859,
      "blühen": 8860,
      "Gebie": 8861,
      "ext": 8862,
      "wandte": 8863,
      "jederzeit": 8864,
      "Locken": 8865,
      "Unterredung": 8866,
      "Lava": 8867,
      "hervorgebracht": 8868,
      "iled": 8869,
      "ächlich": 8870,
      "spreche": 8871,
      "wohnte": 8872,
      "offenen": 8873,
      "entschließen": 8874,
      "appar": 8875,
      "Stückchen": 8876,
      "ffekt": 8877,
      "dreifach": 8878,
      "löschen": 8879,
      "falsch": 8880,
      "wechselsweise": 8881,
      "prithee": 8882,
      "Kirch": 8883,
      "izont": 8884,
      "quickly": 8885,
      "Hark": 8886,
      "ähnliche": 8887,
      "unschätz": 8888,
      "tribunes": 8889,
      "Laub": 8890,
      "entschiedenen": 8891,
      "süße": 8892,
      "unglückliche": 8893,
      "kommst": 8894,
      "antworten": 8895,
      "TAGUE": 8896,
      "stumm": 8897,
      "faults": 8898,
      "Geschicklichkeit": 8899,
      "zarte": 8900,
      "überraschen": 8901,
      "Türen": 8902,
      "hindurch": 8903,
      "eröffnen": 8904,
      "eröffnet": 8905,
      "eröffnete": 8906,
      "portion": 8907,
      "practi": 8908,
      "Hortensi": 8909,
      "Tiefen": 8910,
      "Schultern": 8911,
      "rückwärts": 8912,
      "Bestimmung": 8913,
      "Trümmer": 8914,
      "bewegten": 8915,
      "Leichtigkeit": 8916,
      "wechselseitig": 8917,
      "gewandt": 8918,
      "studieren": 8919,
      "scared": 8920,
      "geschmückt": 8921,
      "gebirge": 8922,
      "Luciane": 8923,
      "Summe": 8924,
      "turned": 8925,
      "Gerüste": 8926,
      "Gehül": 8927,
      "weitläuf": 8928,
      "private": 8929,
      "Brüder": 8930,
      "Kopfe": 8931,
      "eifrig": 8932,
      "Pedant": 8933,
      "MONTAGUE": 8934,
      "unaufhalt": 8935,
      "versäumt": 8936,
      "Detroit": 8937,
      "simple": 8938,
      "Heirat": 8939,
      "genoß": 8940,
      "Entdeckung": 8941,
      "public": 8942,
      "Heaven": 8943,
      "Abwesenheit": 8944,
      "execution": 8945,
      "Majestät": 8946,
      "Katharina": 8947,
      "Gretchen": 8948,
      "Hortensio": 8949,
      "Bach": 8950,
      "Bank": 8951,
      "Ding": 8952,
      "Dunk": 8953,
      "Dauer": 8954,
      "Eg": 8955,
      "Ever": 8956,
      "Fassung": 8957,
      "Kuß": 8958,
      "Kette": 8959,
      "Ketten": 8960,
      "Lass": 8961,
      "Lichte": 8962,
      "Lärm": 8963,
      "Meist": 8964,
      "Messer": 8965,
      "Ok": 8966,
      "Obel": 8967,
      "Pol": 8968,
      "Preis": 8969,
      "Sö": 8970,
      "Set": 8971,
      "Show": 8972,
      "Ware": 8973,
      "apo": 8974,
      "bchen": 8975,
      "bange": 8976,
      "eten": 8977,
      "fla": 8978,
      "feiner": 8979,
      "fchen": 8980,
      "fru": 8981,
      "higkeit": 8982,
      "hub": 8983,
      "job": 8984,
      "punk": 8985,
      "polit": 8986,
      "säu": 8987,
      "satt": 8988,
      "sinnen": 8989,
      "tschaft": 8990,
      "tner": 8991,
      "wann": 8992,
      "yer": 8993,
      "yard": 8994,
      "Äuß": 8995,
      "erhebt": 8996,
      "erfüllen": 8997,
      "ergetz": 8998,
      "stam": 8999,
      "stic": 9000,
      "stören": 9001,
      "thither": 9002,
      "anne": 9003,
      "anhalten": 9004,
      "gewiesen": 9005,
      "artigen": 9006,
      "orious": 9007,
      "unschuld": 9008,
      "diejenigen": 9009,
      "regte": 9010,
      "requ": 9011,
      "bedienen": 9012,
      "alo": 9013,
      "igfalt": 9014,
      "vergleichen": 9015,
      "versichern": 9016,
      "heat": 9017,
      "hap": 9018,
      "elchen": 9019,
      "hero": 9020,
      "herzu": 9021,
      "wilde": 9022,
      "wartet": 9023,
      "liqu": 9024,
      "logi": 9025,
      "Schauer": 9026,
      "Schmeich": 9027,
      "doll": 9028,
      "forbid": 9029,
      "lafen": 9030,
      "lament": 9031,
      "übersehen": 9032,
      "cep": 9033,
      "emsig": 9034,
      "weiße": 9035,
      "weight": 9036,
      "Verdacht": 9037,
      "Erklärung": 9038,
      "bru": 9039,
      "besaß": 9040,
      "Sonder": 9041,
      "Bedenken": 9042,
      "Bestreben": 9043,
      "ads": 9044,
      "eilung": 9045,
      "Under": 9046,
      "Anstreng": 9047,
      "ärkt": 9048,
      "tail": 9049,
      "tadeln": 9050,
      "motion": 9051,
      "gelöst": 9052,
      "Inhalt": 9053,
      "Welle": 9054,
      "klingen": 9055,
      "Vorzüge": 9056,
      "rauben": 9057,
      "boun": 9058,
      "Sehr": 9059,
      "Sehen": 9060,
      "äusch": 9061,
      "blickt": 9062,
      "finster": 9063,
      "Hexen": 9064,
      "tree": 9065,
      "Doth": 9066,
      "whence": 9067,
      "Aufführung": 9068,
      "ucker": 9069,
      "Mannigfalt": 9070,
      "reichend": 9071,
      "bleed": 9072,
      "lenken": 9073,
      "graph": 9074,
      "Tageb": 9075,
      "Habe": 9076,
      "Felder": 9077,
      "Glückseligkeit": 9078,
      "Unterschied": 9079,
      "Bohem": 9080,
      "scene": 9081,
      "bedauer": 9082,
      "neuem": 9083,
      "herrschen": 9084,
      "herrlicher": 9085,
      "Berges": 9086,
      "greet": 9087,
      "einziger": 9088,
      "calls": 9089,
      "Wille": 9090,
      "lebendigen": 9091,
      "aufgehalten": 9092,
      "aufgeführt": 9093,
      "innerlich": 9094,
      "zeichen": 9095,
      "seitdem": 9096,
      "buzz": 9097,
      "flowers": 9098,
      "holde": 9099,
      "Sinnes": 9100,
      "Zustandes": 9101,
      "Monte": 9102,
      "klärt": 9103,
      "zündet": 9104,
      "gerecht": 9105,
      "mäßiger": 9106,
      "lös": 9107,
      "schneller": 9108,
      "minutes": 9109,
      "außerordent": 9110,
      "vertraute": 9111,
      "vertraulich": 9112,
      "Stoff": 9113,
      "stürzt": 9114,
      "Once": 9115,
      "Zweige": 9116,
      "choose": 9117,
      "buried": 9118,
      "Körpers": 9119,
      "paint": 9120,
      "Küche": 9121,
      "verwundet": 9122,
      "mistake": 9123,
      "rotten": 9124,
      "sanften": 9125,
      "English": 9126,
      "Spaß": 9127,
      "Gefälligkeit": 9128,
      "Diesmal": 9129,
      "servant": 9130,
      "Pfad": 9131,
      "funny": 9132,
      "dumb": 9133,
      "happened": 9134,
      "humble": 9135,
      "erhöht": 9136,
      "Wäre": 9137,
      "Kleidung": 9138,
      "prächtig": 9139,
      "Damn": 9140,
      "Städte": 9141,
      "bequemen": 9142,
      "bequemer": 9143,
      "Gräfin": 9144,
      "Gewißheit": 9145,
      "subjects": 9146,
      "regelmäßig": 9147,
      "begriffen": 9148,
      "Hindernis": 9149,
      "fröhlich": 9150,
      "Jener": 9151,
      "römischen": 9152,
      "dishon": 9153,
      "style": 9154,
      "Neugierde": 9155,
      "Blüten": 9156,
      "Gespenst": 9157,
      "beurteilen": 9158,
      "wusste": 9159,
      "Kugel": 9160,
      "Eingang": 9161,
      "Schleier": 9162,
      "Bizarre": 9163,
      "jetzo": 9164,
      "pissed": 9165,
      "Pompey": 9166,
      "truly": 9167,
      "Northumber": 9168,
      "Erwartung": 9169,
      "Bir": 9170,
      "Bob": 9171,
      "Batter": 9172,
      "Dü": 9173,
      "Dün": 9174,
      "Falten": 9175,
      "GIL": 9176,
      "Hon": 9177,
      "Hät": 9178,
      "Hans": 9179,
      "IEL": 9180,
      "Junge": 9181,
      "Kli": 9182,
      "Kater": 9183,
      "Klagen": 9184,
      "Kälte": 9185,
      "Kabin": 9186,
      "Mess": 9187,
      "Male": 9188,
      "Oder": 9189,
      "Oly": 9190,
      "Pla": 9191,
      "Phä": 9192,
      "Pac": 9193,
      "RGIL": 9194,
      "SL": 9195,
      "Si": 9196,
      "Sage": 9197,
      "Tö": 9198,
      "Tut": 9199,
      "Win": 9200,
      "Wit": 9201,
      "Wäl": 9202,
      "Zö": 9203,
      "ado": 9204,
      "awhile": 9205,
      "bach": 9206,
      "bliche": 9207,
      "cord": 9208,
      "cried": 9209,
      "diss": 9210,
      "fans": 9211,
      "fled": 9212,
      "ghost": 9213,
      "hange": 9214,
      "horn": 9215,
      "kit": 9216,
      "linge": 9217,
      "mio": 9218,
      "mix": 9219,
      "non": 9220,
      "ode": 9221,
      "penn": 9222,
      "rent": 9223,
      "sins": 9224,
      "sachte": 9225,
      "summer": 9226,
      "tanz": 9227,
      "äten": 9228,
      "encounter": 9229,
      "erhoben": 9230,
      "ched": 9231,
      "inens": 9232,
      "sts": 9233,
      "stif": 9234,
      "thum": 9235,
      "threw": 9236,
      "anische": 9237,
      "telt": 9238,
      "teeth": 9239,
      "geheim": 9240,
      "gedrungen": 9241,
      "arri": 9242,
      "unbed": 9243,
      "genauer": 9244,
      "schro": 9245,
      "schäd": 9246,
      "repe": 9247,
      "seal": 9248,
      "befr": 9249,
      "legacy": 9250,
      "irur": 9251,
      "cket": 9252,
      "mechan": 9253,
      "measure": 9254,
      "ises": 9255,
      "verder": 9256,
      "verne": 9257,
      "verga": 9258,
      "verstanden": 9259,
      "verhü": 9260,
      "veränder": 9261,
      "verderben": 9262,
      "achter": 9263,
      "hellen": 9264,
      "health": 9265,
      "berech": 9266,
      "benutzt": 9267,
      "wil": 9268,
      "hatt": 9269,
      "kehrten": 9270,
      "lockt": 9271,
      "week": 9272,
      "henden": 9273,
      "umer": 9274,
      "trunk": 9275,
      "vorging": 9276,
      "vornehmen": 9277,
      "mirs": 9278,
      "unsä": 9279,
      "ammelt": 9280,
      "abges": 9281,
      "abscheu": 9282,
      "ript": 9283,
      "Stall": 9284,
      "Steinen": 9285,
      "Versprechen": 9286,
      "Vergebens": 9287,
      "Versammlung": 9288,
      "reist": 9289,
      "önt": 9290,
      "Erquick": 9291,
      "hinder": 9292,
      "hindern": 9293,
      "fahre": 9294,
      "favour": 9295,
      "anzunehmen": 9296,
      "gers": 9297,
      "gerte": 9298,
      "diff": 9299,
      "bespr": 9300,
      "woran": 9301,
      "Gesetze": 9302,
      "Bewohner": 9303,
      "willkür": 9304,
      "Ansicht": 9305,
      "Anton": 9306,
      "untern": 9307,
      "fuse": 9308,
      "Until": 9309,
      "Unbequem": 9310,
      "fürs": 9311,
      "fürchtet": 9312,
      "chtigt": 9313,
      "gewöl": 9314,
      "takin": 9315,
      "Lea": 9316,
      "darling": 9317,
      "dargestellt": 9318,
      "Into": 9319,
      "welve": 9320,
      "geschieden": 9321,
      "geschafft": 9322,
      "rub": 9323,
      "ischof": 9324,
      "ischem": 9325,
      "itting": 9326,
      "Damit": 9327,
      "whore": 9328,
      "raum": 9329,
      "boden": 9330,
      "fuckers": 9331,
      "angenommen": 9332,
      "mögliche": 9333,
      "Ihrigen": 9334,
      "prob": 9335,
      "Aufnahme": 9336,
      "beschlossen": 9337,
      "beschreiben": 9338,
      "fertigen": 9339,
      "goodly": 9340,
      "hadst": 9341,
      "blew": 9342,
      "verschlungen": 9343,
      "ERD": 9344,
      "gehend": 9345,
      "kennst": 9346,
      "Gebil": 9347,
      "Reiz": 9348,
      "Haaren": 9349,
      "exp": 9350,
      "guard": 9351,
      "Gras": 9352,
      "Grand": 9353,
      "Untersuchung": 9354,
      "wundersam": 9355,
      "Brand": 9356,
      "zeige": 9357,
      "Entschuldig": 9358,
      "wahrlich": 9359,
      "Beim": 9360,
      "redlich": 9361,
      "tune": 9362,
      "schlimm": 9363,
      "lebten": 9364,
      "Gelassen": 9365,
      "Grabe": 9366,
      "greater": 9367,
      "künd": 9368,
      "ules": 9369,
      "respo": 9370,
      "Genius": 9371,
      "offence": 9372,
      "wickelt": 9373,
      "winter": 9374,
      "paid": 9375,
      "auszudrücken": 9376,
      "bildete": 9377,
      "spieler": 9378,
      "Blicken": 9379,
      "freudig": 9380,
      "Wesens": 9381,
      "vielem": 9382,
      "Moment": 9383,
      "alsobald": 9384,
      "brauchte": 9385,
      "sonderlich": 9386,
      "wechseln": 9387,
      "prick": 9388,
      "itterung": 9389,
      "kostet": 9390,
      "Fäden": 9391,
      "Gesprächen": 9392,
      "ctions": 9393,
      "Bewegungen": 9394,
      "stops": 9395,
      "Widerwillen": 9396,
      "Wirkungen": 9397,
      "früheren": 9398,
      "Maske": 9399,
      "talkin": 9400,
      "erblicken": 9401,
      "Kühn": 9402,
      "Atmosp": 9403,
      "kneel": 9404,
      "tüchtigen": 9405,
      "VIRGIL": 9406,
      "goldne": 9407,
      "höheren": 9408,
      "verdrieß": 9409,
      "flüchtig": 9410,
      "Reiche": 9411,
      "schneiden": 9412,
      "PERDI": 9413,
      "Schreiben": 9414,
      "erwidern": 9415,
      "Liebhaberei": 9416,
      "prisoner": 9417,
      "Bedürfnisse": 9418,
      "relig": 9419,
      "Grey": 9420,
      "weeping": 9421,
      "Reisende": 9422,
      "Spaziergang": 9423,
      "Italiener": 9424,
      "zeugung": 9425,
      "screamin": 9426,
      "Knochen": 9427,
      "Wissenschaft": 9428,
      "Vollkommen": 9429,
      "mindesten": 9430,
      "ältere": 9431,
      "virtuous": 9432,
      "öffentlichen": 9433,
      "bewundern": 9434,
      "begehrt": 9435,
      "rapper": 9436,
      "bedürfen": 9437,
      "Teppich": 9438,
      "Schoß": 9439,
      "Reinlichkeit": 9440,
      "grimmig": 9441,
      "Mainz": 9442,
      "passed": 9443,
      "itude": 9444,
      "Außer": 9445,
      "Riesen": 9446,
      "bürgerlichen": 9447,
      "Zahl": 9448,
      "Leser": 9449,
      "Schwäche": 9450,
      "bawd": 9451,
      "natural": 9452,
      "schleichen": 9453,
      "beschädigt": 9454,
      "Pension": 9455,
      "Sweet": 9456,
      "ourable": 9457,
      "unaufhaltsam": 9458,
      "Anstrengung": 9459,
      "Bohemia": 9460,
      "Northumberland": 9461,
      "Atmosphäre": 9462,
      "VIRGILIA": 9463,
      "PERDITA": 9464,
      ".,": 9465,
      "Aut": 9466,
      "Bund": 9467,
      "Bom": 9468,
      "Bad": 9469,
      "Bitte": 9470,
      "Cal": 9471,
      "Deine": 9472,
      "Dom": 9473,
      "Gol": 9474,
      "Haufen": 9475,
      "Jes": 9476,
      "Jungen": 9477,
      "Kre": 9478,
      "Köpfe": 9479,
      "Lesen": 9480,
      "Länder": 9481,
      "Lügen": 9482,
      "Lokal": 9483,
      "Mep": 9484,
      "Näch": 9485,
      "OK": 9486,
      "Pull": 9487,
      "Run": 9488,
      "Rän": 9489,
      "Rap": 9490,
      "Sag": 9491,
      "Wild": 9492,
      "Winde": 9493,
      "Whatever": 9494,
      "Zit": 9495,
      "Zelt": 9496,
      "aid": 9497,
      "bath": 9498,
      "baut": 9499,
      "cus": 9500,
      "cute": 9501,
      "cure": 9502,
      "dwell": 9503,
      "eter": 9504,
      "gal": 9505,
      "guns": 9506,
      "gate": 9507,
      "gment": 9508,
      "hes": 9509,
      "lud": 9510,
      "mble": 9511,
      "mask": 9512,
      "ni": 9513,
      "niß": 9514,
      "oll": 9515,
      "pit": 9516,
      "rät": 9517,
      "rücke": 9518,
      "ulen": 9519,
      "vain": 9520,
      "vid": 9521,
      "vile": 9522,
      "väter": 9523,
      "wine": 9524,
[...]
